{
  "version": "1.0",
  "truncation": null,
  "padding": null,
  "added_tokens": [
    {
      "id": 0,
      "content": "<|pad|>",
      "single_word": false,
      "lstrip": false,
      "rstrip": false,
      "normalized": false,
      "special": true
    },
    {
      "id": 1,
      "content": "<|bos|>",
      "single_word": false,
      "lstrip": false,
      "rstrip": false,
      "normalized": false,
      "special": true
    },
    {
      "id": 2,
      "content": "<|eos|>",
      "single_word": false,
      "lstrip": false,
      "rstrip": false,
      "normalized": false,
      "special": true
    },
    {
      "id": 3,
      "content": "<|unk|>",
      "single_word": false,
      "lstrip": false,
      "rstrip": false,
      "normalized": false,
      "special": true
    }
  ],
  "normalizer": {
    "type": "NFKC"
  },
  "pre_tokenizer": {
    "type": "ByteLevel",
    "add_prefix_space": false,
    "trim_offsets": true,
    "use_regex": true
  },
  "post_processor": null,
  "decoder": {
    "type": "ByteLevel",
    "add_prefix_space": true,
    "trim_offsets": true,
    "use_regex": true
  },
  "model": {
    "type": "BPE",
    "dropout": null,
    "unk_token": "<|unk|>",
    "continuing_subword_prefix": null,
    "end_of_word_suffix": null,
    "fuse_unk": false,
    "byte_fallback": false,
    "ignore_merges": false,
    "vocab": {
      "<|pad|>": 0,
      "<|bos|>": 1,
      "<|eos|>": 2,
      "<|unk|>": 3,
      "!": 4,
      "\"": 5,
      "#": 6,
      "$": 7,
      "%": 8,
      "&": 9,
      "'": 10,
      "(": 11,
      ")": 12,
      "*": 13,
      "+": 14,
      ",": 15,
      "-": 16,
      ".": 17,
      "/": 18,
      "0": 19,
      "1": 20,
      "2": 21,
      "3": 22,
      "4": 23,
      "5": 24,
      "6": 25,
      "7": 26,
      "8": 27,
      "9": 28,
      ":": 29,
      ";": 30,
      "<": 31,
      "=": 32,
      ">": 33,
      "?": 34,
      "@": 35,
      "A": 36,
      "B": 37,
      "C": 38,
      "D": 39,
      "E": 40,
      "F": 41,
      "G": 42,
      "H": 43,
      "I": 44,
      "J": 45,
      "K": 46,
      "L": 47,
      "M": 48,
      "N": 49,
      "O": 50,
      "P": 51,
      "Q": 52,
      "R": 53,
      "S": 54,
      "T": 55,
      "U": 56,
      "V": 57,
      "W": 58,
      "X": 59,
      "Y": 60,
      "Z": 61,
      "[": 62,
      "\\": 63,
      "]": 64,
      "^": 65,
      "_": 66,
      "`": 67,
      "a": 68,
      "b": 69,
      "c": 70,
      "d": 71,
      "e": 72,
      "f": 73,
      "g": 74,
      "h": 75,
      "i": 76,
      "j": 77,
      "k": 78,
      "l": 79,
      "m": 80,
      "n": 81,
      "o": 82,
      "p": 83,
      "q": 84,
      "r": 85,
      "s": 86,
      "t": 87,
      "u": 88,
      "v": 89,
      "w": 90,
      "x": 91,
      "y": 92,
      "z": 93,
      "{": 94,
      "|": 95,
      "}": 96,
      "~": 97,
      "¡": 98,
      "¢": 99,
      "£": 100,
      "¤": 101,
      "¥": 102,
      "¦": 103,
      "§": 104,
      "¨": 105,
      "©": 106,
      "ª": 107,
      "«": 108,
      "¬": 109,
      "®": 110,
      "¯": 111,
      "°": 112,
      "±": 113,
      "²": 114,
      "³": 115,
      "´": 116,
      "µ": 117,
      "¶": 118,
      "·": 119,
      "¸": 120,
      "¹": 121,
      "º": 122,
      "»": 123,
      "¼": 124,
      "½": 125,
      "¾": 126,
      "¿": 127,
      "Â": 128,
      "Ã": 129,
      "Ä": 130,
      "Å": 131,
      "Æ": 132,
      "Ç": 133,
      "È": 134,
      "É": 135,
      "Ê": 136,
      "Ë": 137,
      "Ì": 138,
      "Í": 139,
      "Î": 140,
      "Ï": 141,
      "Ð": 142,
      "Ñ": 143,
      "Ò": 144,
      "Ó": 145,
      "Ô": 146,
      "Õ": 147,
      "Ö": 148,
      "×": 149,
      "Ø": 150,
      "Ù": 151,
      "Ú": 152,
      "Û": 153,
      "Ü": 154,
      "Ý": 155,
      "Þ": 156,
      "ß": 157,
      "à": 158,
      "á": 159,
      "â": 160,
      "ã": 161,
      "ä": 162,
      "å": 163,
      "æ": 164,
      "ç": 165,
      "è": 166,
      "é": 167,
      "ê": 168,
      "ë": 169,
      "ì": 170,
      "í": 171,
      "î": 172,
      "ï": 173,
      "ð": 174,
      "ñ": 175,
      "ò": 176,
      "ó": 177,
      "Ā": 178,
      "ā": 179,
      "Ă": 180,
      "ă": 181,
      "Ą": 182,
      "ą": 183,
      "Ć": 184,
      "ć": 185,
      "Ĉ": 186,
      "ĉ": 187,
      "Ċ": 188,
      "ċ": 189,
      "Č": 190,
      "č": 191,
      "Ď": 192,
      "ď": 193,
      "Đ": 194,
      "đ": 195,
      "Ē": 196,
      "ē": 197,
      "Ĕ": 198,
      "ĕ": 199,
      "Ė": 200,
      "ė": 201,
      "Ę": 202,
      "ę": 203,
      "Ě": 204,
      "ě": 205,
      "Ĝ": 206,
      "ĝ": 207,
      "Ğ": 208,
      "ğ": 209,
      "Ġ": 210,
      "ġ": 211,
      "Ģ": 212,
      "ģ": 213,
      "Ĥ": 214,
      "ĥ": 215,
      "Ħ": 216,
      "ħ": 217,
      "Ĩ": 218,
      "ĩ": 219,
      "Ī": 220,
      "ī": 221,
      "Ĭ": 222,
      "ĭ": 223,
      "Į": 224,
      "į": 225,
      "İ": 226,
      "ı": 227,
      "Ĳ": 228,
      "ĳ": 229,
      "Ĵ": 230,
      "ĵ": 231,
      "Ķ": 232,
      "ķ": 233,
      "ĸ": 234,
      "Ĺ": 235,
      "ĺ": 236,
      "Ļ": 237,
      "ļ": 238,
      "Ľ": 239,
      "ľ": 240,
      "Ŀ": 241,
      "ŀ": 242,
      "Ł": 243,
      "ł": 244,
      "Ń": 245,
      "ĠĠ": 246,
      "čĊ": 247,
      "ĠĠĠĠ": 248,
      "00": 249,
      "ĠĠĠ": 250,
      "99": 251,
      "in": 252,
      "on": 253,
      "ĠĠĠĠĠĠĠĠ": 254,
      "or": 255,
      "er": 256,
      "at": 257,
      "en": 258,
      "Ġ0": 259,
      "Ġ1": 260,
      "0000": 261,
      "Ġ-": 262,
      "es": 263,
      "Ġn": 264,
      "se": 265,
      "ĠĠĠĠĠĠĠ": 266,
      "Ġt": 267,
      "çĶ": 268,
      "Ġ3": 269,
      "de": 270,
      "st": 271,
      "re": 272,
      "an": 273,
      "al": 274,
      "ut": 275,
      "çĶ·": 276,
      "le": 277,
      "01": 278,
      "Ġ=": 279,
      "as": 280,
      "it": 281,
      "ar": 282,
      "ch": 283,
      "ion": 284,
      "Ġ2": 285,
      "--": 286,
      "ed": 287,
      "02": 288,
      "9999": 289,
      "12": 290,
      "Ġi": 291,
      "å¥": 292,
      "14": 293,
      "16": 294,
      "03": 295,
      "53": 296,
      "ä¸": 297,
      "ri": 298,
      "06": 299,
      "04": 300,
      "07": 301,
      "13": 302,
      "co": 303,
      "ct": 304,
      "52": 305,
      "ĠĠĠĠĠĠĠĠĠĠĠ": 306,
      "56": 307,
      "ro": 308,
      "Ġf": 309,
      "18": 310,
      "54": 311,
      "57": 312,
      "17": 313,
      "ent": 314,
      "58": 315,
      "08": 316,
      "æĸ": 317,
      "59": 318,
      "Ġ\"": 319,
      "åħ": 320,
      "Ġm": 321,
      "å°": 322,
      "ing": 323,
      "09": 324,
      "19": 325,
      "å¥³": 326,
      "Ġin": 327,
      "mp": 328,
      "he": 329,
      "==": 330,
      "un": 331,
      "32": 332,
      "Ġ4": 333,
      "64": 334,
      "lf": 335,
      "self": 336,
      "67": 337,
      "con": 338,
      "38": 339,
      "æĿ": 340,
      "li": 341,
      "00000000": 342,
      "pe": 343,
      "24": 344,
      "ad": 345,
      "34": 346,
      "me": 347,
      "37": 348,
      "ce": 349,
      "28": 350,
      "39": 351,
      "åį": 352,
      "Ġs": 353,
      "27": 354,
      "Ġp": 355,
      "ass": 356,
      "68": 357,
      "ge": 358,
      "äº": 359,
      "æľ": 360,
      "29": 361,
      "Ġb": 362,
      "Ġ[": 363,
      "å®": 364,
      "il": 365,
      "ig": 366,
      "id": 367,
      "åĪ": 368,
      "lo": 369,
      "å¤": 370,
      "----": 371,
      "69": 372,
      "ex": 373,
      "Ġ`": 374,
      "ab": 375,
      "Ġo": 376,
      "ur": 377,
      "Ġ(": 378,
      "ac": 379,
      "di": 380,
      "11": 381,
      "rib": 382,
      "um": 383,
      "05": 384,
      "orch": 385,
      "att": 386,
      "Ġthe": 387,
      "44": 388,
      "çİ": 389,
      "Ġself": 390,
      "78": 391,
      "62": 392,
      "py": 393,
      "33": 394,
      "Ġa": 395,
      "put": 396,
      "ke": 397,
      "48": 398,
      "åĲ": 399,
      "Ġc": 400,
      "98": 401,
      "å¼": 402,
      "ort": 403,
      "ot": 404,
      "Ġnr": 405,
      "å°Ķ": 406,
      "77": 407,
      "Ġw": 408,
      "RO": 409,
      "22": 410,
      "ĠN": 411,
      "åŃ": 412,
      "æĺ": 413,
      "ue": 414,
      "Ġv": 415,
      "is": 416,
      "36": 417,
      "ĠĠĠĠĠĠĠĠĠĠĠĠĠĠĠĠ": 418,
      "iz": 419,
      "Ġto": 420,
      "55": 421,
      "Ġre": 422,
      "éĩ": 423,
      "ol": 424,
      "Ġ'": 425,
      "one": 426,
      "å¾": 427,
      "åı": 428,
      "ode": 429,
      "ens": 430,
      "47": 431,
      "ma": 432,
      "la": 433,
      "est": 434,
      "ate": 435,
      "Ġis": 436,
      "ra": 437,
      "ation": 438,
      "49": 439,
      "66": 440,
      "el": 441,
      "ty": 442,
      "ä¼": 443,
      "ĠT": 444,
      "====": 445,
      "15": 446,
      "88": 447,
      "ff": 448,
      "Ġh": 449,
      "æĸ¯": 450,
      "__": 451,
      "def": 452,
      "ä»": 453,
      "torch": 454,
      "26": 455,
      "79": 456,
      "and": 457,
      "ul": 458,
      "ĠA": 459,
      "å¸": 460,
      "pt": 461,
      "odel": 462,
      "),": 463,
      "ribut": 464,
      "OU": 465,
      "99999999": 466,
      "ic": 467,
      "fig": 468,
      "od": 469,
      "éĻ": 470,
      "ä½": 471,
      "ĠC": 472,
      "em": 473,
      "Ġ8": 474,
      "):": 475,
      "th": 476,
      "Ġ6": 477,
      "ĠS": 478,
      "int": 479,
      "ĠĠĠĠĠĠĠĠĠĠĠĠĠĠĠ": 480,
      "res": 481,
      "ç§": 482,
      "pp": 483,
      "åĨ": 484,
      "76": 485,
      "CE": 486,
      "qu": 487,
      "],": 488,
      "åĽ": 489,
      "æĻ": 490,
      "Ġ#": 491,
      "ame": 492,
      "Ġd": 493,
      "74": 494,
      "éĽ": 495,
      "comp": 496,
      "23": 497,
      "Ġ5": 498,
      "lib": 499,
      "Ġof": 500,
      "Ġ9": 501,
      "PRO": 502,
      "pro": 503,
      "ensor": 504,
      "ä¹": 505,
      "ç»": 506,
      "config": 507,
      "to": 508,
      "--------": 509,
      "ĠNone": 510,
      "çī": 511,
      "cont": 512,
      "çİĭ": 513,
      "Ġ7": 514,
      "10": 515,
      "key": 516,
      "æĭ": 517,
      "çŁ": 518,
      "OUR": 519,
      "OURCE": 520,
      "æ³": 521,
      "ribute": 522,
      "ver": 523,
      "89": 524,
      "25": 525,
      "çº": 526,
      "è´": 527,
      "46": 528,
      "af": 529,
      "35": 530,
      "ist": 531,
      "æĿİ": 532,
      "lass": 533,
      "ant": 534,
      "ER": 535,
      "åº": 536,
      "ht": 537,
      "Ġfor": 538,
      "èµ": 539,
      "æŀ": 540,
      "ror": 541,
      "è¿": 542,
      "ca": 543,
      "æĪ": 544,
      "åĬ": 545,
      "per": 546,
      "Ġnot": 547,
      "ess": 548,
      "Ġ11": 549,
      "val": 550,
      "å¹": 551,
      "ize": 552,
      "æī": 553,
      "str": 554,
      "Ġ12": 555,
      "Ġ13": 556,
      "DI": 557,
      "EC": 558,
      "fe": 559,
      "42": 560,
      "å¼ł": 561,
      "tr": 562,
      "97": 563,
      "å¾·": 564,
      "31": 565,
      "æ´": 566,
      "æł": 567,
      "\",": 568,
      "ECT": 569,
      "attribute": 570,
      "Ġl": 571,
      "()": 572,
      "${": 573,
      "ext": 574,
      "å¿": 575,
      "åħĭ": 576,
      "åŁ": 577,
      "}/": 578,
      "æĭī": 579,
      "éĥ": 580,
      "Ġif": 581,
      "å·": 582,
      "sh": 583,
      "87": 584,
      "DIR": 585,
      "Ġ${": 586,
      "ction": 587,
      "Ġdef": 588,
      "æµ": 589,
      "cc": 590,
      "po": 591,
      "vi": 592,
      "çŁ¥": 593,
      "urn": 594,
      "ack": 595,
      "86": 596,
      "æ°": 597,
      "84": 598,
      "JECT": 599,
      "able": 600,
      "PROJECT": 601,
      "arg": 602,
      "94": 603,
      "51": 604,
      "SOURCE": 605,
      "æľª": 606,
      "ule": 607,
      "turn": 608,
      "æĸĩ": 609,
      "ers": 610,
      "libs": 611,
      "error": 612,
      "æ²": 613,
      "get": 614,
      "ĠL": 615,
      "0000000000": 616,
      "éĺ": 617,
      "21": 618,
      "ec": 619,
      "æŀĹ": 620,
      "odule": 621,
      "Ġ:": 622,
      "ents": 623,
      "',": 624,
      "rom": 625,
      "set": 626,
      "éĻĪ": 627,
      "æľªçŁ¥": 628,
      "ç½": 629,
      "contrib": 630,
      "èĭ": 631,
      "96": 632,
      "Ġerror": 633,
      "orm": 634,
      "èİ": 635,
      "çī¹": 636,
      "é»": 637,
      "am": 638,
      "åĪ©": 639,
      "ĠP": 640,
      "cted": 641,
      "ith": 642,
      "èĬ": 643,
      "ss": 644,
      "åĪĺ": 645,
      "ord": 646,
      "':": 647,
      "åĩ": 648,
      "è¯": 649,
      "ption": 650,
      "æ±": 651,
      "ĠM": 652,
      "In": 653,
      "9999999999": 654,
      "\"\"": 655,
      "æ¢": 656,
      "utput": 657,
      "ow": 658,
      "oc": 659,
      "Ġand": 660,
      "atch": 661,
      "..": 662,
      "ult": 663,
      "ome": 664,
      "è¾": 665,
      "sk": 666,
      "èĥ": 667,
      "43": 668,
      "63": 669,
      "Ġ{": 670,
      "é©": 671,
      "å¨": 672,
      "Ġth": 673,
      "45": 674,
      "den": 675,
      "ity": 676,
      "size": 677,
      "mport": 678,
      "ert": 679,
      "eb": 680,
      "æĹ": 681,
      "Ġ|": 682,
      "========": 683,
      "82": 684,
      "å½": 685,
      "type": 686,
      "Ġ*": 687,
      "emb": 688,
      "ata": 689,
      "da": 690,
      "ly": 691,
      "ask": 692,
      "ä¿": 693,
      "ken": 694,
      "éĩĳ": 695,
      "der": 696,
      "ef": 697,
      "èĢ": 698,
      "é©¬": 699,
      "å±": 700,
      "Ġtorch": 701,
      "å»": 702,
      "æŃ": 703,
      "92": 704,
      "72": 705,
      "æĺİ": 706,
      "sp": 707,
      "åĳ": 708,
      "idden": 709,
      "cb": 710,
      "ç½Ĺ": 711,
      "Ġreturn": 712,
      "Ġ10": 713,
      "up": 714,
      "ter": 715,
      "ase": 716,
      "ding": 717,
      "istant": 718,
      "/_": 719,
      "73": 720,
      "çĽ": 721,
      "Ġe": 722,
      "41": 723,
      "ype": 724,
      "assistant": 725,
      "mage": 726,
      "Ġ)": 727,
      "db": 728,
      "us": 729,
      "æĽ": 730,
      "num": 731,
      "pected": 732,
      "ĠB": 733,
      "ve": 734,
      "äºļ": 735,
      "ç§ĳ": 736,
      "ĠF": 737,
      "åįİ": 738,
      "fa": 739,
      "éĩĮ": 740,
      "compon": 741,
      "par": 742,
      "nt": 743,
      "omeassistant": 744,
      "65": 745,
      "å¤«": 746,
      "init": 747,
      "61": 748,
      "components": 749,
      "ild": 750,
      "æķ": 751,
      "Ġbe": 752,
      "model": 753,
      "lay": 754,
      "ç¾": 755,
      "çĲ": 756,
      "Ġ00": 757,
      "Ġ<": 758,
      "([": 759,
      "è°": 760,
      "age": 761,
      "expected": 762,
      "åĽ½": 763,
      "test": 764,
      "èī": 765,
      "æ¸": 766,
      "rue": 767,
      "èĲ": 768,
      "83": 769,
      "ention": 770,
      "éĤ": 771,
      "ee": 772,
      "bb": 773,
      "å°¼": 774,
      "75": 775,
      "åľ": 776,
      "93": 777,
      "71": 778,
      "stat": 779,
      "å§": 780,
      "ç«": 781,
      "åŃĲ": 782,
      "ern": 783,
      "å¡": 784,
      "åĭ": 785,
      "å¯": 786,
      "å¤§": 787,
      "85": 788,
      "èĴ": 789,
      "rep": 790,
      "ore": 791,
      "class": 792,
      "æĿ¨": 793,
      "ang": 794,
      "gen": 795,
      "æĢ": 796,
      "95": 797,
      "df": 798,
      "ub": 799,
      "ROR": 800,
      "ERROR": 801,
      "----------------": 802,
      "attention": 803,
      "åį¡": 804,
      "Ġmodel": 805,
      "éĿ": 806,
      "unt": 807,
      "Ġattribute": 808,
      "word": 809,
      "\")": 810,
      "cess": 811,
      "ile": 812,
      "bo": 813,
      "Ġy": 814,
      "Ġconfig": 815,
      "æµ·": 816,
      "ç¥": 817,
      "unk": 818,
      "Un": 819,
      "ect": 820,
      "éŁ": 821,
      "é»Ħ": 822,
      "20": 823,
      "use": 824,
      "ary": 825,
      "input": 826,
      "\":": 827,
      "ON": 828,
      "æ¯": 829,
      "éľ": 830,
      "ä¸Ģ": 831,
      "all": 832,
      "é«": 833,
      "ç»´": 834,
      "000000000": 835,
      "ure": 836,
      "è®": 837,
      "èĮ": 838,
      "ND": 839,
      "dd": 840,
      "aa": 841,
      "et": 842,
      "code": 843,
      "name": 844,
      "ĠE": 845,
      "ps": 846,
      "30": 847,
      "Ġor": 848,
      "form": 849,
      "åŁº": 850,
      "ay": 851,
      "Ġon": 852,
      "81": 853,
      "åĳ¨": 854,
      "ument": 855,
      "ĠI": 856,
      "Ġimport": 857,
      "Ġle": 858,
      "dict": 859,
      "ĠD": 860,
      "é¾": 861,
      "fb": 862,
      "Ġwith": 863,
      "cri": 864,
      "é«ĺ": 865,
      "ĠĠĠĠĠĠĠĠĠĠĠĠĠĠĠĠĠĠĠ": 866,
      "å¹³": 867,
      "å¥ĩ": 868,
      "èį": 869,
      "TI": 870,
      "Ġ14": 871,
      "assert": 872,
      "50": 873,
      "ĠR": 874,
      "keyword": 875,
      "éĺ¿": 876,
      "åĲ´": 877,
      "im": 878,
      "Ġde": 879,
      "unction": 880,
      "æł¼": 881,
      "LE": 882,
      "å¸ĥ": 883,
      "from": 884,
      "91": 885,
      "ç´": 886,
      "047": 887,
      "ain": 888,
      "ĠH": 889,
      "._": 890,
      "éĢ": 891,
      "count": 892,
      "ctor": 893,
      "Ġhas": 894,
      "states": 895,
      "207": 896,
      "embed": 897,
      "Ġr": 898,
      "ann": 899,
      "åĮ": 900,
      "cat": 901,
      "cd": 902,
      "mask": 903,
      "éĽ·": 904,
      "cf": 905,
      "ine": 906,
      "èĤ": 907,
      "è¡": 908,
      "Ġpro": 909,
      "åİ": 910,
      "çİī": 911,
      "perty": 912,
      "ight": 913,
      "list": 914,
      "tt": 915,
      "ition": 916,
      "ids": 917,
      "coder": 918,
      "``": 919,
      "sha": 920,
      "util": 921,
      "ath": 922,
      "com": 923,
      "pack": 924,
      "ati": 925,
      "40": 926,
      "if": 927,
      "))": 928,
      "property": 929,
      "æģ": 930,
      "Ġas": 931,
      "çĶŁ": 932,
      "alse": 933,
      "log": 934,
      "è¥": 935,
      "Ġ_": 936,
      "ix": 937,
      "value": 938,
      "Ġns": 939,
      "acy": 940,
      "æ¶": 941,
      "60": 942,
      "args": 943,
      "çĻ": 944,
      "ea": 945,
      ">/": 946,
      "CW": 947,
      "åĵ": 948,
      "ä¼Ĭ": 949,
      "CWD": 950,
      "hidden": 951,
      "own": 952,
      "Ġno": 953,
      "Ġpar": 954,
      "ä¸Ń": 955,
      "ĠĠĠĠĠĠĠĠĠĠĠĠĠĠĠĠĠĠĠĠĠĠĠĠĠĠĠĠĠĠĠĠ": 956,
      "gacy": 957,
      "ç¦": 958,
      "æĸ°": 959,
      "ence": 960,
      "Ġclass": 961,
      "ĠĠĠĠĠ": 962,
      "end": 963,
      "è¥¿": 964,
      "Ġtype": 965,
      "Ġinput": 966,
      "os": 967,
      "Ġ+": 968,
      "æĪĲ": 969,
      "om": 970,
      "æĻĵ": 971,
      "cla": 972,
      "éģ": 973,
      "Ġlegacy": 974,
      "æ¢ħ": 975,
      "å®ī": 976,
      "leaf": 977,
      "trunk": 978,
      "ject": 979,
      "ans": 980,
      "éĴ": 981,
      "900": 982,
      "verri": 983,
      "åĿ": 984,
      "Ġex": 985,
      "loc": 986,
      "escri": 987,
      "ari": 988,
      "cpp": 989,
      "å¿Ĺ": 990,
      "ĠO": 991,
      "Ġ\"\"\"": 992,
      "æŁ": 993,
      "report": 994,
      "å¾Ĳ": 995,
      "çĶ°": 996,
      "èµµ": 997,
      "Ġdi": 998,
      "Ent": 999,
      "æ¡": 1000,
      "çļ": 1001,
      "ĠW": 1002,
      "date": 1003,
      "be": 1004,
      "Ġst": 1005,
      "escription": 1006,
      "çº¢": 1007,
      "(\"": 1008,
      "ined": 1009,
      "add": 1010,
      "lit": 1011,
      "len": 1012,
      "æľ±": 1013,
      "Entity": 1014,
      "bf": 1015,
      "vice": 1016,
      "èĭ±": 1017,
      "é£": 1018,
      "output": 1019,
      "ba": 1020,
      "ðŁ": 1021,
      "ault": 1022,
      "é¾Ļ": 1023,
      "//": 1024,
      "PI": 1025,
      "Ġmodule": 1026,
      "èĥ¡": 1027,
      "av": 1028,
      "ment": 1029,
      "å¥¥": 1030,
      "loat": 1031,
      "head": 1032,
      "ernal": 1033,
      "åħ°": 1034,
      "å»º": 1035,
      "ign": 1036,
      ".__": 1037,
      "token": 1038,
      "ash": 1039,
      "çº³": 1040,
      "Ġ17": 1041,
      "iss": 1042,
      "çı": 1043,
      "Ġ16": 1044,
      "Ġ18": 1045,
      "clapack": 1046,
      "æĺ¥": 1047,
      "che": 1048,
      "internal": 1049,
      "ĠUn": 1050,
      "å±±": 1051,
      "sc": 1052,
      "ance": 1053,
      "Con": 1054,
      "ä¸ľ": 1055,
      "TION": 1056,
      "PE": 1057,
      "dc": 1058,
      "çĳ": 1059,
      "Tensor": 1060,
      "url": 1061,
      "éĹ": 1062,
      "äºĳ": 1063,
      "Ġfunction": 1064,
      "amp": 1065,
      "536": 1066,
      "åĨĽ": 1067,
      "Ġ->": 1068,
      ">>": 1069,
      "]:": 1070,
      "ind": 1071,
      "Ġfrom": 1072,
      "ç¾İ": 1073,
      "argument": 1074,
      "å¦": 1075,
      "ä¼Ł": 1076,
      "els": 1077,
      "Ġ19": 1078,
      "æ¬": 1079,
      "Ġg": 1080,
      "èĪ": 1081,
      "çĵ": 1082,
      "éĶ": 1083,
      "ew": 1084,
      "éķ": 1085,
      "æ´Ľ": 1086,
      "åĨħ": 1087,
      "å·´": 1088,
      "pre": 1089,
      "ä¸½": 1090,
      "OM": 1091,
      "ç±": 1092,
      "ial": 1093,
      "é¡": 1094,
      "TY": 1095,
      "upp": 1096,
      "ues": 1097,
      "äºº": 1098,
      "æĥ": 1099,
      "é¦": 1100,
      "æ³¢": 1101,
      "ost": 1102,
      "Ġse": 1103,
      "128": 1104,
      "ir": 1105,
      "fc": 1106,
      "ision": 1107,
      "è¶": 1108,
      "ae": 1109,
      "åŃĻ": 1110,
      "é²": 1111,
      "ime": 1112,
      "Ġan": 1113,
      "uild": 1114,
      "out": 1115,
      "fd": 1116,
      "å¤©": 1117,
      "Ġhomeassistant": 1118,
      "split": 1119,
      "feat": 1120,
      "å¡Ķ": 1121,
      "True": 1122,
      "80": 1123,
      "TIONS": 1124,
      "æ°¸": 1125,
      "tra": 1126,
      "ations": 1127,
      "500000000": 1128,
      "èı": 1129,
      "================": 1130,
      "é¢": 1131,
      "bd": 1132,
      "æĮ": 1133,
      "bc": 1134,
      "è¯º": 1135,
      "Ġint": 1136,
      "ded": 1137,
      "æĶ": 1138,
      "70": 1139,
      "Ġch": 1140,
      "ool": 1141,
      "string": 1142,
      "ļ¨": 1143,
      "data": 1144,
      "Ġ15": 1145,
      "å¤ļ": 1146,
      "6776": 1147,
      "256": 1148,
      "04714": 1149,
      "item": 1150,
      "20753": 1151,
      "our": 1152,
      "å®¶": 1153,
      "2075304714": 1154,
      "åħī": 1155,
      "sensor": 1156,
      "åŃ¦": 1157,
      "ðŁļ¨": 1158,
      "NT": 1159,
      "Ġtest": 1160,
      "arget": 1161,
      "image": 1162,
      "homeassistant": 1163,
      "ĠPRO": 1164,
      "001": 1165,
      "004": 1166,
      "://": 1167,
      "åħĥ": 1168,
      "èĴĤ": 1169,
      "éĵ": 1170,
      "Ġres": 1171,
      "802": 1172,
      "åĬł": 1173,
      "ĠCOM": 1174,
      "ç¿": 1175,
      "PER": 1176,
      "izer": 1177,
      "ĠModule": 1178,
      "ðŁļ¨ðŁļ¨": 1179,
      "ip": 1180,
      "ght": 1181,
      "677652": 1182,
      "900677652": 1183,
      "å²": 1184,
      "Äł": 1185,
      "OP": 1186,
      "ä¾": 1187,
      "108": 1188,
      "ou": 1189,
      "æ±Ł": 1190,
      "æĻ®": 1191,
      "Ġk": 1192,
      "ç¨": 1193,
      "load": 1194,
      "ä¸į": 1195,
      "æīĺ": 1196,
      "\"]": 1197,
      "ĠPROPER": 1198,
      "çĵ¦": 1199,
      "te": 1200,
      "è¾¾": 1201,
      "pos": 1202,
      "low": 1203,
      "ĠPROPERTY": 1204,
      "ç±³": 1205,
      "Ġco": 1206,
      "ĠG": 1207,
      "éĥŃ": 1208,
      "æĬ": 1209,
      "gener": 1210,
      "ag": 1211,
      "Ġwh": 1212,
      "Ġ==": 1213,
      "ust": 1214,
      "issing": 1215,
      "})": 1216,
      "000000000000000000": 1217,
      "ango": 1218,
      "90": 1219,
      "èĩ": 1220,
      "ç¦ı": 1221,
      "åĶ": 1222,
      "PEND": 1223,
      "å³": 1224,
      "ft": 1225,
      "è§": 1226,
      "èİ±": 1227,
      "else": 1228,
      "Ġuse": 1229,
      "Ġby": 1230,
      "layer": 1231,
      "æĿ°": 1232,
      "ies": 1233,
      "æ¸ħ": 1234,
      "fo": 1235,
      "ä½ķ": 1236,
      "cessor": 1237,
      "jango": 1238,
      "PPEND": 1239,
      "deo": 1240,
      "are": 1241,
      "old": 1242,
      "008": 1243,
      "514": 1244,
      "OPTIONS": 1245,
      "child": 1246,
      "åĲī": 1247,
      "åįļ": 1248,
      "è´Ŀ": 1249,
      "cl": 1250,
      "ä¸ĩ": 1251,
      "PILE": 1252,
      "ĠSOURCE": 1253,
      "ard": 1254,
      "æĸ¹": 1255,
      "ense": 1256,
      "ĠV": 1257,
      "èį£": 1258,
      "ĠCOMPILE": 1259,
      "ä¸ĸ": 1260,
      "ĠAPPEND": 1261,
      "è·": 1262,
      "its": 1263,
      ").": 1264,
      "[\"": 1265,
      "Ġbuild": 1266,
      "Ġ``": 1267,
      "__`": 1268,
      "nown": 1269,
      "çĪ": 1270,
      "ved": 1271,
      "ãĢ": 1272,
      "wargs": 1273,
      "åī": 1274,
      "Ġthat": 1275,
      "gth": 1276,
      "æ·": 1277,
      "Ġma": 1278,
      "Ġen": 1279,
      "æħ": 1280,
      "ia": 1281,
      "èĳ": 1282,
      "htt": 1283,
      "Description": 1284,
      "ble": 1285,
      "è½": 1286,
      "ink": 1287,
      "ES": 1288,
      "002": 1289,
      "mo": 1290,
      "è¿ª": 1291,
      "è°¢": 1292,
      "Ġval": 1293,
      "Ġun": 1294,
      "Ġargument": 1295,
      "329": 1296,
      "Input": 1297,
      "we": 1298,
      "ange": 1299,
      "ha": 1300,
      "=\"": 1301,
      "009": 1302,
      "ory": 1303,
      "å£": 1304,
      "ill": 1305,
      "029": 1306,
      "007": 1307,
      "dif": 1308,
      "çĤ": 1309,
      "attr": 1310,
      "Ġhidden": 1311,
      "Ġoutput": 1312,
      "ser": 1313,
      "éĥĳ": 1314,
      "èĲ¨": 1315,
      "101": 1316,
      "bject": 1317,
      "024": 1318,
      "ĠĠĠĠĠĠĠĠĠ": 1319,
      "åĴ": 1320,
      "Ġ..": 1321,
      "æ¥": 1322,
      "lic": 1323,
      "åĽ¾": 1324,
      "èģ": 1325,
      "èĬ³": 1326,
      "003": 1327,
      "Ġimage": 1328,
      "art": 1329,
      "text": 1330,
      "Ġnum": 1331,
      "ä¸ī": 1332,
      "ffff": 1333,
      "ny": 1334,
      "Ġmo": 1335,
      "æ½": 1336,
      "utils": 1337,
      "ator": 1338,
      "icense": 1339,
      "ĠNo": 1340,
      "åĸ": 1341,
      "ç§Ģ": 1342,
      "Ma": 1343,
      "iles": 1344,
      "Ġnz": 1345,
      "ä»Ģ": 1346,
      "og": 1347,
      "ie": 1348,
      "verride": 1349,
      "right": 1350,
      "çľ": 1351,
      "ail": 1352,
      "é²ģ": 1353,
      "yn": 1354,
      "çĩ": 1355,
      "values": 1356,
      "tensor": 1357,
      "æŃ£": 1358,
      "Ġkeyword": 1359,
      "ĠY": 1360,
      "åĢ": 1361,
      "ĠTrue": 1362,
      "Ġstr": 1363,
      "kens": 1364,
      "lease": 1365,
      "ast": 1366,
      "missing": 1367,
      "orted": 1368,
      "Ġelse": 1369,
      "Ġthis": 1370,
      "ç©": 1371,
      "EntityDescription": 1372,
      "Ġ((": 1373,
      "ire": 1374,
      "device": 1375,
      "assign": 1376,
      "Model": 1377,
      "åĭĴ": 1378,
      "æ£": 1379,
      "LI": 1380,
      "Ġcon": 1381,
      "éŁ¦": 1382,
      "Sensor": 1383,
      "å¼º": 1384,
      "ress": 1385,
      "thod": 1386,
      "æŃ¦": 1387,
      "Ġ56": 1388,
      "Ġtoken": 1389,
      "ä¿Ĭ": 1390,
      "unexpected": 1391,
      "inputs": 1392,
      "Ġ28": 1393,
      "006": 1394,
      "æ´ª": 1395,
      "Ġare": 1396,
      "qual": 1397,
      "dex": 1398,
      "ho": 1399,
      "Ġal": 1400,
      "014": 1401,
      "èĢ¶": 1402,
      "eck": 1403,
      "AR": 1404,
      "034": 1405,
      "ĠUnexpected": 1406,
      "æĿ¾": 1407,
      "å¸Į": 1408,
      "547": 1409,
      "018": 1410,
      "dim": 1411,
      "èĭı": 1412,
      "TE": 1413,
      "èĶ": 1414,
      "shape": 1415,
      "Ġsy": 1416,
      "Ġ24": 1417,
      "åį¢": 1418,
      "397": 1419,
      "rg": 1420,
      "è¢": 1421,
      "å¨ĥ": 1422,
      "Ġmodif": 1423,
      "path": 1424,
      "000": 1425,
      "und": 1426,
      "116": 1427,
      "ember": 1428,
      "çĦ": 1429,
      "ber": 1430,
      "ç«ĭ": 1431,
      "ĠK": 1432,
      "=-": 1433,
      "Ġ}": 1434,
      "quant": 1435,
      "éļ": 1436,
      "length": 1437,
      "pec": 1438,
      "ong": 1439,
      "ä¹ĭ": 1440,
      "compati": 1441,
      "æĿľ": 1442,
      "Ġ32": 1443,
      "é½": 1444,
      "æĹ¥": 1445,
      "embedding": 1446,
      "resol": 1447,
      "å©": 1448,
      "æ¯Ķ": 1449,
      "ĠLicense": 1450,
      "--------------------------------": 1451,
      "ĠThe": 1452,
      "ray": 1453,
      "åı¶": 1454,
      "Ġassign": 1455,
      "ç¨ĭ": 1456,
      "nn": 1457,
      "ks": 1458,
      "106": 1459,
      "cnt": 1460,
      "ariable": 1461,
      "æİ": 1462,
      "ttribute": 1463,
      "å´": 1464,
      "op": 1465,
      "åģ": 1466,
      "017": 1467,
      "ree": 1468,
      "æ³ķ": 1469,
      "å¿ł": 1470,
      "ces": 1471,
      "é¹": 1472,
      "è¾ī": 1473,
      "ä¸Ĭ": 1474,
      "éŃ": 1475,
      "Ġ{})": 1476,
      "Ġ64": 1477,
      "114": 1478,
      "æ³°": 1479,
      "Ġtr": 1480,
      "èİ«": 1481,
      "compatible": 1482,
      "bu": 1483,
      "æ»": 1484,
      "Ġpy": 1485,
      "æľ¬": 1486,
      "abels": 1487,
      "batch": 1488,
      "NG": 1489,
      "::": 1490,
      "019": 1491,
      "æ¢ģ": 1492,
      "çŁ³": 1493,
      "å°ı": 1494,
      "gg": 1495,
      "Ġ53": 1496,
      "ull": 1497,
      "äºİ": 1498,
      "çĩķ": 1499,
      "pri": 1500,
      "cast": 1501,
      "å®ĭ": 1502,
      "èī¯": 1503,
      "107": 1504,
      "Ġz": 1505,
      "ĠFalse": 1506,
      "inary": 1507,
      "104": 1508,
      "Ġmember": 1509,
      "import": 1510,
      "012": 1511,
      "æ°ĳ": 1512,
      "åŁĥ": 1513,
      "åºĨ": 1514,
      "ç¬": 1515,
      "113": 1516,
      "~~": 1517,
      "Ġkey": 1518,
      "çĥ": 1519,
      "æķı": 1520,
      "åºĵ": 1521,
      "53633": 1522,
      "éķ¿": 1523,
      "ĠTh": 1524,
      "80206": 1525,
      "ov": 1526,
      "å³°": 1527,
      "Ġit": 1528,
      "None": 1529,
      "ated": 1530,
      "8020653633": 1531,
      "èµ«": 1532,
      "libr": 1533,
      ":`": 1534,
      "Ġ--": 1535,
      "çģ": 1536,
      "598": 1537,
      "çİ²": 1538,
      "Ġ54": 1539,
      "sr": 1540,
      "Ġid": 1541,
      "Ġfile": 1542,
      "æľī": 1543,
      "RE": 1544,
      "å®ĩ": 1545,
      "åıĳ": 1546,
      "100": 1547,
      "ise": 1548,
      "AL": 1549,
      "app": 1550,
      "å¡ŀ": 1551,
      "117": 1552,
      "Ġ52": 1553,
      "Ġ@": 1554,
      "112": 1555,
      "016": 1556,
      "Ġ57": 1557,
      "æ°´": 1558,
      "åĴĮ": 1559,
      "django": 1560,
      "iel": 1561,
      "ä½³": 1562,
      "imp": 1563,
      "kwargs": 1564,
      "æľĪ": 1565,
      "032": 1566,
      "uration": 1567,
      "058": 1568,
      "118": 1569,
      "èĻ": 1570,
      "##": 1571,
      "è£": 1572,
      "https": 1573,
      "ccess": 1574,
      "Ġname": 1575,
      "å§Ĩ": 1576,
      "Ġ...": 1577,
      "102": 1578,
      "rror": 1579,
      "adding": 1580,
      "åĶĲ": 1581,
      "åįĹ": 1582,
      "ĠJ": 1583,
      "Ġ25": 1584,
      "Ġmay": 1585,
      "å®ģ": 1586,
      "æ¨": 1587,
      "('": 1588,
      "OUNT": 1589,
      "ww": 1590,
      "9999999998": 1591,
      "èī³": 1592,
      "å¸ķ": 1593,
      "COUNT": 1594,
      "å¹´": 1595,
      "reportA": 1596,
      "æº": 1597,
      "dec": 1598,
      "æ³½": 1599,
      "åĵĪ": 1600,
      "feature": 1601,
      "395": 1602,
      "des": 1603,
      "ĠĠĠĠĠĠ": 1604,
      "Ġattention": 1605,
      "comm": 1606,
      "ĠIn": 1607,
      "103": 1608,
      "ms": 1609,
      "Ġ22": 1610,
      "ĠEx": 1611,
      "ä½©": 1612,
      "Ġx": 1613,
      "Ġonly": 1614,
      "ield": 1615,
      "ansform": 1616,
      "åĩ¤": 1617,
      "default": 1618,
      "å®Ŀ": 1619,
      "weight": 1620,
      "Data": 1621,
      "`,": 1622,
      "è®¸": 1623,
      "Ġ26": 1624,
      "åħ´": 1625,
      "é£ŀ": 1626,
      "ource": 1627,
      "Ġ58": 1628,
      "ale": 1629,
      "éģĵ": 1630,
      "027": 1631,
      "Ġ38": 1632,
      "éĽª": 1633,
      "exp": 1634,
      "Error": 1635,
      "False": 1636,
      "119": 1637,
      "stribut": 1638,
      "uple": 1639,
      "Ġ116": 1640,
      "éĿĴ": 1641,
      "\"\"\"": 1642,
      "é½Ĳ": 1643,
      "èĬ±": 1644,
      "109": 1645,
      "Ġ23": 1646,
      "state": 1647,
      "è±": 1648,
      "Ġya": 1649,
      "Ex": 1650,
      "orts": 1651,
      "resolved": 1652,
      "çĻ½": 1653,
      "Ġ39": 1654,
      "ç¥¥": 1655,
      "ä¸ģ": 1656,
      "Ġ**": 1657,
      "çĳŀ": 1658,
      "237": 1659,
      "Ġcomp": 1660,
      "åħ¬": 1661,
      "Ġ62": 1662,
      "unresolved": 1663,
      "Ġassert": 1664,
      "ures": 1665,
      "Ġ20": 1666,
      "åħ¨": 1667,
      "quire": 1668,
      "028": 1669,
      "quer": 1670,
      "reg": 1671,
      "Equal": 1672,
      "Ġ44": 1673,
      "æĸ½": 1674,
      "fer": 1675,
      "Access": 1676,
      "æĦ": 1677,
      "Ġlist": 1678,
      "Ġ29": 1679,
      "clu": 1680,
      "158": 1681,
      "è¡Į": 1682,
      "054": 1683,
      "float": 1684,
      "parent": 1685,
      "Ġme": 1686,
      "åĲĽ": 1687,
      "option": 1688,
      "013": 1689,
      "info": 1690,
      "åįģ": 1691,
      "Ġ27": 1692,
      "LA": 1693,
      "mb": 1694,
      "Ġli": 1695,
      "tokens": 1696,
      "col": 1697,
      "Ġcont": 1698,
      "æ®": 1699,
      "umn": 1700,
      "053": 1701,
      "ample": 1702,
      "99999999999": 1703,
      "056": 1704,
      "que": 1705,
      "thon": 1706,
      "ä¼ļ": 1707,
      "052": 1708,
      "inal": 1709,
      "æ²Ī": 1710,
      "To": 1711,
      "Ġ21": 1712,
      "Ġ59": 1713,
      "èĮ¨": 1714,
      "Iss": 1715,
      "022": 1716,
      "pa": 1717,
      "ç´¢": 1718,
      "å°ĳ": 1719,
      "ä½Ļ": 1720,
      "ç®": 1721,
      "èĹ": 1722,
      ">>>": 1723,
      "boost": 1724,
      "Ġassignable": 1725,
      "æĸ¯åŁº": 1726,
      "çķ": 1727,
      "max": 1728,
      "æĽ¹": 1729,
      "918": 1730,
      "057": 1731,
      "å®Ĺ": 1732,
      "ĠĠĠĠĠĠĠĠĠĠ": 1733,
      "å¿ĥ": 1734,
      "æ½ĺ": 1735,
      "Type": 1736,
      "Ġ>>>": 1737,
      "005": 1738,
      "048": 1739,
      "Issue": 1740,
      "çŃ": 1741,
      "Ġdo": 1742,
      "éħ": 1743,
      "])": 1744,
      "åº·": 1745,
      "åĩ¯": 1746,
      "è¶ħ": 1747,
      "éŁ©": 1748,
      "çļ®": 1749,
      "Ġ34": 1750,
      "io": 1751,
      "00000000001": 1752,
      "attn": 1753,
      "file": 1754,
      "199": 1755,
      "152": 1756,
      "æĢĿ": 1757,
      "èĶ¡": 1758,
      "Make": 1759,
      "038": 1760,
      "rit": 1761,
      "æģ©": 1762,
      "157": 1763,
      "099": 1764,
      "åĲķ": 1765,
      "æħ§": 1766,
      "156": 1767,
      "éľŀ": 1768,
      "ä»£": 1769,
      "quence": 1770,
      "hash": 1771,
      "stem": 1772,
      "307": 1773,
      "SensorEntityDescription": 1774,
      "äºĮ": 1775,
      "026": 1776,
      "sum": 1777,
      "ĠIf": 1778,
      "253": 1779,
      "ustom": 1780,
      "Config": 1781,
      "ä»»": 1782,
      "153": 1783,
      "Ġpre": 1784,
      "les": 1785,
      "ual": 1786,
      "ges": 1787,
      "ttributeAccess": 1788,
      "reportAttributeAccess": 1789,
      "reportAttributeAccessIssue": 1790,
      "embeddings": 1791,
      "ics": 1792,
      "resh": 1793,
      "ich": 1794,
      "for": 1795,
      "')": 1796,
      "127": 1797,
      "Ġat": 1798,
      "Ġwe": 1799,
      "124": 1800,
      "defined": 1801,
      "Ġsupp": 1802,
      "138": 1803,
      "ĠĠĠĠĠĠĠĠĠĠĠĠĠĠĠĠĠĠĠĠĠĠĠ": 1804,
      "éĺ³": 1805,
      "0001": 1806,
      "cs": 1807,
      "Ġ47": 1808,
      "uto": 1809,
      "é¸": 1810,
      "uctor": 1811,
      "Ġset": 1812,
      "oin": 1813,
      "134": 1814,
      "codegen": 1815,
      "MA": 1816,
      "back": 1817,
      "point": 1818,
      "Ġinputs": 1819,
      "Ġ36": 1820,
      "array": 1821,
      "éľį": 1822,
      "å¼Ģ": 1823,
      "æĽ¾": 1824,
      "Ġvi": 1825,
      "Ġ37": 1826,
      "ameter": 1827,
      "src": 1828,
      "Ġwill": 1829,
      "soc": 1830,
      "Ġ(`": 1831,
      "quest": 1832,
      "UL": 1833,
      "doc": 1834,
      "lock": 1835,
      "Ġcan": 1836,
      "Pro": 1837,
      "154": 1838,
      "Ġ\\": 1839,
      "æĺĮ": 1840,
      "Ġfiles": 1841,
      "èĸ": 1842,
      "æ²Ļ": 1843,
      "ales": 1844,
      "å¤ı": 1845,
      "logits": 1846,
      "æĽ¼": 1847,
      "çļĦ": 1848,
      "ä¸ļ": 1849,
      "129": 1850,
      "ave": 1851,
      "037": 1852,
      "library": 1853,
      "ä¼¦": 1854,
      "137": 1855,
      "144": 1856,
      "ions": 1857,
      "]\"": 1858,
      "å½Ń": 1859,
      "å¯Į": 1860,
      "inductor": 1861,
      "loss": 1862,
      "stance": 1863,
      "hel": 1864,
      "Ġ42": 1865,
      "ization": 1866,
      "å®ı": 1867,
      "èĲį": 1868,
      "pon": 1869,
      "St": 1870,
      "Ġ48": 1871,
      "139": 1872,
      "308": 1873,
      "target": 1874,
      "ph": 1875,
      "149": 1876,
      "é¦Ļ": 1877,
      "Re": 1878,
      "Ġdefault": 1879,
      "147": 1880,
      "chann": 1881,
      "æĮ¯": 1882,
      "039": 1883,
      "ning": 1884,
      "çĨ": 1885,
      "sub": 1886,
      "æĿ¥": 1887,
      "ok": 1888,
      "reshold": 1889,
      "675": 1890,
      "148": 1891,
      "å¼Ĺ": 1892,
      "åı¤": 1893,
      "IN": 1894,
      "ç¤": 1895,
      "åĦ": 1896,
      "roup": 1897,
      "Ġra": 1898,
      "Ġ60": 1899,
      "left": 1900,
      "uld": 1901,
      "597": 1902,
      "Ġtarget": 1903,
      "layers": 1904,
      "æĪĪ": 1905,
      "åľ°": 1906,
      "ç§ĭ": 1907,
      "168": 1908,
      "uc": 1909,
      "éª": 1910,
      "OR": 1911,
      "çıį": 1912,
      "174": 1913,
      "å·Ŀ": 1914,
      "èĵ": 1915,
      "096": 1916,
      "è·¯": 1917,
      "åĭĩ": 1918,
      "è¨": 1919,
      "023": 1920,
      "æ£®": 1921,
      "162": 1922,
      "ne": 1923,
      "518": 1924,
      "stributed": 1925,
      "ĠRe": 1926,
      "ðŁļ¨ðŁļ¨ðŁļ¨ðŁļ¨": 1927,
      "178": 1928,
      "044": 1929,
      "Ġ49": 1930,
      "extra": 1931,
      "éº": 1932,
      "__(": 1933,
      "Ġvalue": 1934,
      "éŃı": 1935,
      "ized": 1936,
      "ĠAny": 1937,
      "read": 1938,
      "min": 1939,
      "åĺ": 1940,
      "169": 1941,
      "Ġì": 1942,
      "Ġ__": 1943,
      "äº®": 1944,
      "De": 1945,
      "Ġë": 1946,
      "æĿĳ": 1947,
      "åĨ¯": 1948,
      "Test": 1949,
      "çĶ¨": 1950,
      "068": 1951,
      "row": 1952,
      "32909": 1953,
      "Ġ31": 1954,
      "Ġ33": 1955,
      "51438": 1956,
      "supp": 1957,
      "198": 1958,
      "valid": 1959,
      "æĥł": 1960,
      "udi": 1961,
      "åĪĩ": 1962,
      "sy": 1963,
      "è´¹": 1964,
      "gain": 1965,
      "ry": 1966,
      "son": 1967,
      "5143832909": 1968,
      "èĳ£": 1969,
      "åł": 1970,
      "å¹¿": 1971,
      "åĩº": 1972,
      "Ġus": 1973,
      "ump": 1974,
      "ä¸ĭ": 1975,
      "ml": 1976,
      "Ġsu": 1977,
      "æĻº": 1978,
      "594": 1979,
      "238": 1980,
      "process": 1981,
      "568": 1982,
      "å¨Ł": 1983,
      "âĹ": 1984,
      "threshold": 1985,
      "Ġ55": 1986,
      "èĤĸ": 1987,
      "verrides": 1988,
      "ä¿Ŀ": 1989,
      "177": 1990,
      "049": 1991,
      "mages": 1992,
      "164": 1993,
      "00000": 1994,
      "Ġ46": 1995,
      "åĪĹ": 1996,
      "338": 1997,
      "Ġget": 1998,
      "annot": 1999,
      "252": 2000,
      "194": 2001,
      "éĽħ": 2002,
      "âĹĮ": 2003,
      "Ġ35": 2004,
      "179": 2005,
      "osition": 2006,
      "line": 2007,
      "167": 2008,
      "067": 2009,
      "entity": 2010,
      "éĤĵ": 2011,
      "Ġknown": 2012,
      "Ġ30": 2013,
      "Ġ50": 2014,
      "Ġ43": 2015,
      "ĠPro": 2016,
      "cu": 2017,
      "é¹ı": 2018,
      "oth": 2019,
      "126": 2020,
      "æ¡Ĥ": 2021,
      "çĲ´": 2022,
      "064": 2023,
      "ob": 2024,
      "188": 2025,
      "136": 2026,
      "Ġyou": 2027,
      "197": 2028,
      "çĪ±": 2029,
      "**": 2030,
      "094": 2031,
      "ä»ģ": 2032,
      "las": 2033,
      "Tree": 2034,
      "Ġca": 2035,
      "098": 2036,
      "aves": 2037,
      "ias": 2038,
      "578": 2039,
      "æ²ĥ": 2040,
      "AM": 2041,
      "069": 2042,
      "Ġrep": 2043,
      "224": 2044,
      "pi": 2045,
      "norm": 2046,
      "548": 2047,
      "å¢": 2048,
      "Ġ+-": 2049,
      "143": 2050,
      "297": 2051,
      "æĸĮ": 2052,
      "iv": 2053,
      "èı²": 2054,
      "Ġnrt": 2055,
      "015": 2056,
      "åĬĽ": 2057,
      "æĢ§": 2058,
      "æĻ¯": 2059,
      "036": 2060,
      "query": 2061,
      "assertEqual": 2062,
      "ç²": 2063,
      "urr": 2064,
      "ateg": 2065,
      "Output": 2066,
      "ib": 2067,
      "ç»´å¥ĩ": 2068,
      "pol": 2069,
      "Ġsame": 2070,
      "184": 2071,
      "leaves": 2072,
      "åıĭ": 2073,
      "labels": 2074,
      "èĴĭ": 2075,
      "Ġgener": 2076,
      "ere": 2077,
      "è¿ŀ": 2078,
      "189": 2079,
      "èĮĥ": 2080,
      "è¦": 2081,
      "æł¹": 2082,
      "rink": 2083,
      "è´¾": 2084,
      "æĺŁ": 2085,
      "udio": 2086,
      "èĥľ": 2087,
      "146": 2088,
      "088": 2089,
      "emp": 2090,
      "588": 2091,
      "Ġoverrides": 2092,
      "544": 2093,
      "ward": 2094,
      "Variable": 2095,
      "å£«": 2096,
      "æ¹": 2097,
      "596": 2098,
      "334": 2099,
      "538": 2100,
      "è¢ģ": 2101,
      "Ġmax": 2102,
      "clude": 2103,
      "ä¹ī": 2104,
      "078": 2105,
      "337": 2106,
      "0000000000000000": 2107,
      "502": 2108,
      "ç«ł": 2109,
      "574": 2110,
      "shrink": 2111,
      "decision": 2112,
      "xx": 2113,
      "400000": 2114,
      "shrinkage": 2115,
      "584": 2116,
      "Ġ40": 2117,
      "ĠArg": 2118,
      "Ġla": 2119,
      "éĽĦ": 2120,
      "228": 2121,
      "position": 2122,
      "å¦Ĥ": 2123,
      "ket": 2124,
      "reportIn": 2125,
      "dir": 2126,
      "åı¯": 2127,
      "ications": 2128,
      "ive": 2129,
      "994": 2130,
      "ĠThis": 2131,
      "0000000001": 2132,
      "187": 2133,
      "Ġmethod": 2134,
      "084": 2135,
      "rad": 2136,
      "time": 2137,
      "Ġlen": 2138,
      "ĠHA": 2139,
      "Ġss": 2140,
      "364": 2141,
      "999": 2142,
      "087": 2143,
      "å¸Ĥ": 2144,
      "video": 2145,
      "097": 2146,
      "534": 2147,
      "ä¸¹": 2148,
      "549": 2149,
      "ä¼¯": 2150,
      "ä¿¡": 2151,
      "imple": 2152,
      "Ġdata": 2153,
      "384": 2154,
      "æį": 2155,
      "sales": 2156,
      "mat": 2157,
      "æľ¨": 2158,
      "089": 2159,
      "net": 2160,
      "539": 2161,
      "Override": 2162,
      "med": 2163,
      "ai": 2164,
      "046": 2165,
      "åĤ": 2166,
      "Ġmodifications": 2167,
      "352": 2168,
      "éĿĻ": 2169,
      "074": 2170,
      "577": 2171,
      "537": 2172,
      "reportIncompatible": 2173,
      "589": 2174,
      "998": 2175,
      "579": 2176,
      "587": 2177,
      "Binary": 2178,
      "ux": 2179,
      "368": 2180,
      "Ġ45": 2181,
      "332": 2182,
      "For": 2183,
      "ST": 2184,
      "éĢļ": 2185,
      "idth": 2186,
      "ger": 2187,
      "åİŁ": 2188,
      "512": 2189,
      "Ġtext": 2190,
      "Ġvideo": 2191,
      "ao": 2192,
      "066": 2193,
      "159": 2194,
      "ĠCMake": 2195,
      "real": 2196,
      "176": 2197,
      "æīĭ": 2198,
      "2912": 2199,
      "079": 2200,
      "å§ļ": 2201,
      "227": 2202,
      "embeds": 2203,
      "059": 2204,
      "train": 2205,
      "å¨ľ": 2206,
      "SE": 2207,
      "Ġapp": 2208,
      "no": 2209,
      "Ġso": 2210,
      "00000000002": 2211,
      "æĸ¯çī¹": 2212,
      "KE": 2213,
      "Se": 2214,
      "ific": 2215,
      "heads": 2216,
      "166": 2217,
      "\\.": 2218,
      "196": 2219,
      "æ¶Ľ": 2220,
      "check": 2221,
      "564": 2222,
      "Ġ.": 2223,
      "åķ": 2224,
      "dire": 2225,
      "234": 2226,
      "eat": 2227,
      "ler": 2228,
      "hape": 2229,
      "processor": 2230,
      "ffffffff": 2231,
      ")),": 2232,
      "['": 2233,
      "ailable": 2234,
      "ync": 2235,
      "264": 2236,
      "Ġexp": 2237,
      "552": 2238,
      "ä¹Į": 2239,
      "èĬ¬": 2240,
      "367": 2241,
      "Ġconfiguration": 2242,
      "act": 2243,
      "Ġnt": 2244,
      "outputs": 2245,
      "ep": 2246,
      "èĦ": 2247,
      "ach": 2248,
      "æīİ": 2249,
      "077": 2250,
      "trans": 2251,
      "Ġ51": 2252,
      "Ġbool": 2253,
      "param": 2254,
      "ative": 2255,
      "ç´ł": 2256,
      "567": 2257,
      "èĩª": 2258,
      "Ġnn": 2259,
      "268": 2260,
      "æ¯Ľ": 2261,
      "Ġ61": 2262,
      "698": 2263,
      "dtype": 2264,
      "201": 2265,
      "æ±ª": 2266,
      "é£İ": 2267,
      "ä½Ĳ": 2268,
      "å´Ķ": 2269,
      "ther": 2270,
      "çĻ¾": 2271,
      "åĪĨ": 2272,
      "è´µ": 2273,
      "Ġraise": 2274,
      "éĴŁ": 2275,
      "569": 2276,
      "ark": 2277,
      "urrent": 2278,
      "åĮĹ": 2279,
      "sed": 2280,
      "ĠAND": 2281,
      "Ġrelease": 2282,
      "rand": 2283,
      "pen": 2284,
      "so": 2285,
      "ç¥ĸ": 2286,
      "186": 2287,
      "398": 2288,
      "åĲį": 2289,
      "index": 2290,
      "Ġ41": 2291,
      "'t": 2292,
      "sw": 2293,
      "110": 2294,
      "æľº": 2295,
      "ei": 2296,
      "åı²": 2297,
      "314": 2298,
      "alue": 2299,
      "ilter": 2300,
      "åį«": 2301,
      "æĺ¯": 2302,
      "328": 2303,
      "ocab": 2304,
      "tit": 2305,
      "pr": 2306,
      "ream": 2307,
      "():": 2308,
      "åŃ£": 2309,
      "../": 2310,
      "ä¹Ĳ": 2311,
      "çł": 2312,
      "ç¼": 2313,
      "åħµ": 2314,
      "Ġbo": 2315,
      "Ġ},": 2316,
      "Ġj": 2317,
      "road": 2318,
      "åĺī": 2319,
      "å¤ª": 2320,
      "528": 2321,
      "Ġ128": 2322,
      "cblas": 2323,
      "Ch": 2324,
      "éĻĨ": 2325,
      "features": 2326,
      "546": 2327,
      "997": 2328,
      "Ġsource": 2329,
      "éĽ¨": 2330,
      "ansformers": 2331,
      "298": 2332,
      "576": 2333,
      "è¿Ľ": 2334,
      "524": 2335,
      "BLE": 2336,
      "267": 2337,
      "åĮĸ": 2338,
      "Ġac": 2339,
      "================================": 2340,
      "ear": 2341,
      "ĠĠĠĠĠĠĠĠĠĠĠĠĠ": 2342,
      "change": 2343,
      "529": 2344,
      "åĲĳ": 2345,
      "patch": 2346,
      "586": 2347,
      "324": 2348,
      "åĪļ": 2349,
      "pert": 2350,
      "return": 2351,
      "248": 2352,
      "proj": 2353,
      "èħ": 2354,
      "378": 2355,
      "Ġmask": 2356,
      "éĥİ": 2357,
      "åĽĽ": 2358,
      "DE": 2359,
      "394": 2360,
      "idx": 2361,
      "TH": 2362,
      "086": 2363,
      "__.": 2364,
      "99999999998": 2365,
      "172": 2366,
      "Ġresult": 2367,
      "çľŁ": 2368,
      "ä¸º": 2369,
      "'s": 2370,
      "397395": 2371,
      "price": 2372,
      "éĩį": 2373,
      "roadcast": 2374,
      "2912397395": 2375,
      "Ġparameter": 2376,
      "1827": 2377,
      "527": 2378,
      "met": 2379,
      "encoder": 2380,
      "348": 2381,
      "format": 2382,
      "VariableOverride": 2383,
      "reportIncompatibleVariableOverride": 2384,
      "custom": 2385,
      "æı": 2386,
      "192": 2387,
      "ĠU": 2388,
      "Ġexpected": 2389,
      "694": 2390,
      "566": 2391,
      "decoder": 2392,
      "åħĪ": 2393,
      "çĲĨ": 2394,
      "132": 2395,
      "Ġwhich": 2396,
      "Ġspec": 2397,
      "irst": 2398,
      "not": 2399,
      "294": 2400,
      "bad": 2401,
      "åŁİ": 2402,
      "fin": 2403,
      "cor": 2404,
      "ç©Ĩ": 2405,
      "vers": 2406,
      "327": 2407,
      "âĢ": 2408,
      "244": 2409,
      "688": 2410,
      "èĢĥ": 2411,
      "ä¼ł": 2412,
      "pes": 2413,
      "387": 2414,
      "Ġlike": 2415,
      "match": 2416,
      "135": 2417,
      "Ġposition": 2418,
      "è¿ľ": 2419,
      "lat": 2420,
      "025": 2421,
      "076": 2422,
      "catboost": 2423,
      "344": 2424,
      "ponse": 2425,
      "247": 2426,
      "cache": 2427,
      "674": 2428,
      "317": 2429,
      "çĭ": 2430,
      "697": 2431,
      "åŃŁ": 2432,
      "ixel": 2433,
      "347": 2434,
      "216": 2435,
      "zh": 2436,
      "å§ľ": 2437,
      "optional": 2438,
      "354": 2439,
      "309": 2440,
      "æ¬£": 2441,
      "èĹ¤": 2442,
      "Al": 2443,
      "679": 2444,
      "Ġunder": 2445,
      "cept": 2446,
      "çĹ": 2447,
      "Ġbatch": 2448,
      "50000000001": 2449,
      "Ġwas": 2450,
      "çĽ¸": 2451,
      "åħ¹": 2452,
      "uct": 2453,
      "æ·ĳ": 2454,
      "304": 2455,
      "RI": 2456,
      "çĴ": 2457,
      "316": 2458,
      "ertain": 2459,
      "254": 2460,
      "éĵ¶": 2461,
      "288": 2462,
      "çħ": 2463,
      "ç¾¤": 2464,
      "æĶ¿": 2465,
      "æĹ¶": 2466,
      "Ġback": 2467,
      "å®ļ": 2468,
      "277": 2469,
      "æ±ī": 2470,
      "Di": 2471,
      "249": 2472,
      "å»ĸ": 2473,
      "ner": 2474,
      "éĩİ": 2475,
      "287": 2476,
      "388": 2477,
      "278": 2478,
      "iginal": 2479,
      "678": 2480,
      "326": 2481,
      "vision": 2482,
      "éĹ¨": 2483,
      "module": 2484,
      "']": 2485,
      "umpy": 2486,
      "ork": 2487,
      "store": 2488,
      "åįĥ": 2489,
      "sci": 2490,
      "784": 2491,
      "Ġab": 2492,
      "educ": 2493,
      "åģ¥": 2494,
      "396": 2495,
      "203": 2496,
      "trained": 2497,
      "ctions": 2498,
      "height": 2499,
      "core": 2500,
      "vert": 2501,
      "æĹł": 2502,
      "education": 2503,
      "çīĩ": 2504,
      "åĲĪ": 2505,
      "ĠSY": 2506,
      "Ġall": 2507,
      "å©·": 2508,
      "389": 2509,
      "306": 2510,
      "996": 2511,
      "ä½ľ": 2512,
      "itch": 2513,
      "lin": 2514,
      "åŃĶ": 2515,
      "258": 2516,
      "ä¹Ķ": 2517,
      "/__": 2518,
      "å¸¸": 2519,
      "379": 2520,
      "olumn": 2521,
      "274": 2522,
      "Ġzg": 2523,
      "279": 2524,
      "125": 2525,
      "make": 2526,
      "377": 2527,
      "Join": 2528,
      "äºĶ": 2529,
      "éĶĭ": 2530,
      "Ġobject": 2531,
      "ug": 2532,
      "Ġnew": 2533,
      "æłĳ": 2534,
      "284": 2535,
      "seq": 2536,
      "313": 2537,
      "ware": 2538,
      "å°ļ": 2539,
      "0002": 2540,
      "374": 2541,
      "number": 2542,
      "List": 2543,
      "æľĿ": 2544,
      "æµ©": 2545,
      "man": 2546,
      "ç»į": 2547,
      "122": 2548,
      "[:": 2549,
      "303": 2550,
      "game": 2551,
      "349": 2552,
      "526": 2553,
      "iter": 2554,
      "Ġsystem": 2555,
      "NGUL": 2556,
      "356": 2557,
      "696": 2558,
      "ĠčĊ": 2559,
      "RA": 2560,
      "çĥŃ": 2561,
      "ĠHANGUL": 2562,
      "336": 2563,
      "åı£": 2564,
      "åĬª": 2565,
      "æĤ": 2566,
      "Ġboth": 2567,
      "318": 2568,
      "ocks": 2569,
      "LLA": 2570,
      "353": 2571,
      "cuda": 2572,
      "Ġ/": 2573,
      "è²": 2574,
      "arch": 2575,
      "æķ°": 2576,
      "Ġ216": 2577,
      "357": 2578,
      "648": 2579,
      "æ¸©": 2580,
      "å¼µ": 2581,
      "358": 2582,
      "instance": 2583,
      "ched": 2584,
      "æºĲ": 2585,
      "description": 2586,
      "èİī": 2587,
      "æ²³": 2588,
      "proto": 2589,
      "å½¦": 2590,
      "105": 2591,
      "684": 2592,
      "pu": 2593,
      "polit": 2594,
      "ĠSYLLA": 2595,
      "ĠSYLLABLE": 2596,
      "Ġtokenizer": 2597,
      "inter": 2598,
      "ä¹¦": 2599,
      "è³": 2600,
      "Ġper": 2601,
      "iety": 2602,
      "296": 2603,
      "å·¥": 2604,
      "éĥ¨": 2605,
      "sports": 2606,
      "å¥½": 2607,
      "politics": 2608,
      "ertainment": 2609,
      "mod": 2610,
      "Ġ77": 2611,
      "289": 2612,
      "677": 2613,
      "æ¢¦": 2614,
      "ç¢": 2615,
      "QU": 2616,
      "reate": 2617,
      "society": 2618,
      "science": 2619,
      "dro": 2620,
      "687": 2621,
      "115": 2622,
      "maint": 2623,
      "order": 2624,
      "äºķ": 2625,
      "æŁ³": 2626,
      "entertainment": 2627,
      "æīį": 2628,
      "689": 2629,
      "èĥ½": 2630,
      "categ": 2631,
      "pout": 2632,
      "649": 2633,
      "åĲĮ": 2634,
      "Ġhtt": 2635,
      "repare": 2636,
      "lex": 2637,
      "finance": 2638,
      "view": 2639,
      "Ġsub": 2640,
      "ames": 2641,
      "äº¬": 2642,
      "626": 2643,
      "èµ·": 2644,
      "175": 2645,
      "ws": 2646,
      "Ġbase": 2647,
      "300": 2648,
      "Ġtra": 2649,
      "stocks": 2650,
      "647": 2651,
      "ilt": 2652,
      "èµĸ": 2653,
      "coding": 2654,
      "208": 2655,
      "ener": 2656,
      "dition": 2657,
      "206": 2658,
      "tester": 2659,
      "Co": 2660,
      "essage": 2661,
      "vate": 2662,
      "369": 2663,
      "realty": 2664,
      "204": 2665,
      "ä¾¯": 2666,
      "cxx": 2667,
      "æĪ´": 2668,
      "åĸľ": 2669,
      "clo": 2670,
      "æ¼": 2671,
      "åĦ¿": 2672,
      "can": 2673,
      "1103": 2674,
      "Ġman": 2675,
      "312": 2676,
      "246": 2677,
      "ffer": 2678,
      "Ġlog": 2679,
      "ä¸ª": 2680,
      "644": 2681,
      "399": 2682,
      "].": 2683,
      "301": 2684,
      "366": 2685,
      "218": 2686,
      "spec": 2687,
      "ç§¦": 2688,
      "376": 2689,
      "lect": 2690,
      "www": 2691,
      "çĨĬ": 2692,
      "arning": 2693,
      "Ġnp": 2694,
      "506": 2695,
      "director": 2696,
      "~~~~": 2697,
      "rame": 2698,
      "xes": 2699,
      "302": 2700,
      "çĽĽ": 2701,
      "202": 2702,
      "9999999997": 2703,
      "lient": 2704,
      "pretrained": 2705,
      "åı¸": 2706,
      "rid": 2707,
      "ram": 2708,
      "339": 2709,
      "386": 2710,
      "eed": 2711,
      "èĴĻ": 2712,
      "VA": 2713,
      "Ġ>": 2714,
      "319": 2715,
      "Ġfloat": 2716,
      "åıĮ": 2717,
      "fix": 2718,
      "ĠYa": 2719,
      "ese": 2720,
      "åľ¨": 2721,
      "Ġtuple": 2722,
      "customer": 2723,
      "known": 2724,
      "346": 2725,
      "200": 2726,
      "ll": 2727,
      "686": 2728,
      "start": 2729,
      "108918": 2730,
      "359": 2731,
      "1089181827": 2732,
      "ak": 2733,
      "257": 2734,
      "646": 2735,
      "jk": 2736,
      "Ġsuper": 2737,
      "null": 2738,
      "ç£": 2739,
      "éĴ±": 2740,
      "214": 2741,
      "ead": 2742,
      "226": 2743,
      "append": 2744,
      "ynam": 2745,
      "æ²»": 2746,
      "Ġ1001": 2747,
      "cript": 2748,
      "ite": 2749,
      "676": 2750,
      "557": 2751,
      "rect": 2752,
      "286": 2753,
      "ifi": 2754,
      "ç»§": 2755,
      "276": 2756,
      "posit": 2757,
      "åŀ": 2758,
      "åħ³": 2759,
      "556": 2760,
      "åīį": 2761,
      "indow": 2762,
      "Ġmodify": 2763,
      "go": 2764,
      "507": 2765,
      "0003": 2766,
      "299": 2767,
      "Ġlayer": 2768,
      "æĹŃ": 2769,
      "Ġpass": 2770,
      "hould": 2771,
      "232": 2772,
      "Ġoutputs": 2773,
      "Ġwhen": 2774,
      "209": 2775,
      "lif": 2776,
      "Ġsimple": 2777,
      "title": 2778,
      "Any": 2779,
      "789": 2780,
      "åĮº": 2781,
      "ins": 2782,
      "554": 2783,
      "cjk": 2784,
      "####": 2785,
      "666": 2786,
      "xt": 2787,
      "488": 2788,
      "éĻ¶": 2789,
      "åĽł": 2790,
      "504": 2791,
      "åĬ¨": 2792,
      "é¡º": 2793,
      "lation": 2794,
      "available": 2795,
      "553": 2796,
      "tokenizer": 2797,
      "508": 2798,
      "call": 2799,
      "213": 2800,
      "558": 2801,
      "ute": 2802,
      "æĪ¿": 2803,
      "Ġisinstance": 2804,
      "Ġadding": 2805,
      "ä¸»": 2806,
      "Ġrequire": 2807,
      "base": 2808,
      "è°·": 2809,
      "yt": 2810,
      "mbol": 2811,
      "pository": 2812,
      "json": 2813,
      "è´¤": 2814,
      "çĸ": 2815,
      "Ġdim": 2816,
      "group": 2817,
      "abel": 2818,
      "late": 2819,
      "ran": 2820,
      "éĸ": 2821,
      "599": 2822,
      "distributed": 2823,
      "org": 2824,
      "common": 2825,
      "ression": 2826,
      "Ġused": 2827,
      "red": 2828,
      "è±ª": 2829,
      "ç³": 2830,
      "AS": 2831,
      "éĳ": 2832,
      "Ġprovi": 2833,
      "ĠProject": 2834,
      "Ġmore": 2835,
      "Ġrepository": 2836,
      "result": 2837,
      "numpy": 2838,
      "å¾Ĺ": 2839,
      "Tool": 2840,
      "788": 2841,
      "Ġshape": 2842,
      "ED": 2843,
      "å½¬": 2844,
      "212": 2845,
      "`.": 2846,
      "è°Ń": 2847,
      "ç¬¬": 2848,
      "Ġcheck": 2849,
      "ception": 2850,
      "é¡¾": 2851,
      "æ´ĭ": 2852,
      "Ġfeat": 2853,
      "513": 2854,
      "down": 2855,
      "quantization": 2856,
      "509": 2857,
      "mit": 2858,
      "function": 2859,
      "217": 2860,
      "ET": 2861,
      "uments": 2862,
      "259": 2863,
      "448": 2864,
      "Ġsum": 2865,
      "ron": 2866,
      "èĪĴ": 2867,
      "Ġadd": 2868,
      "with": 2869,
      "229": 2870,
      "ĠBroadcast": 2871,
      "export": 2872,
      "ĠX": 2873,
      "èī¾": 2874,
      "Ġshould": 2875,
      "516": 2876,
      "ace": 2877,
      "ãĢĭ": 2878,
      "ãĢĬ": 2879,
      "cxxsupp": 2880,
      "uo": 2881,
      "channels": 2882,
      "ound": 2883,
      "images": 2884,
      "Ġbut": 2885,
      "269": 2886,
      "åŁ¹": 2887,
      "Th": 2888,
      "Ġdf": 2889,
      "Ġported": 2890,
      "åĲİ": 2891,
      "Ġoriginal": 2892,
      "æĺĵ": 2893,
      "ä»ĺ": 2894,
      "run": 2895,
      "ĠYaTool": 2896,
      "åĲ¯": 2897,
      "éļĨ": 2898,
      "ĠBase": 2899,
      "559": 2900,
      "239": 2901,
      "çº¦": 2902,
      "ersion": 2903,
      "0000000002": 2904,
      "489": 2905,
      "æĿĥ": 2906,
      "çĲ³": 2907,
      "503": 2908,
      "00000000003": 2909,
      "éĶ¦": 2910,
      "ey": 2911,
      "å±ħ": 2912,
      "ĠArgument": 2913,
      "å¨ģ": 2914,
      "uth": 2915,
      "çĻ»": 2916,
      "ĠCo": 2917,
      "å®¹": 2918,
      "å»¶": 2919,
      "Ġdevice": 2920,
      "åħ¶": 2921,
      "instring": 2922,
      "efore": 2923,
      "ĠQ": 2924,
      "ev": 2925,
      "Res": 2926,
      "éł": 2927,
      "wa": 2928,
      "category": 2929,
      "362": 2930,
      "lob": 2931,
      "attentions": 2932,
      "pter": 2933,
      "Ġdtype": 2934,
      "ĠĠĠĠĠĠĠĠĠĠĠĠĠĠĠĠĠĠĠĠĠĠĠĠĠĠĠ": 2935,
      "Float": 2936,
      "787": 2937,
      "nd": 2938,
      "Tra": 2939,
      "fun": 2940,
      "Ġhead": 2941,
      "REQU": 2942,
      "èį¯": 2943,
      "pl": 2944,
      "page": 2945,
      "ç½ĳ": 2946,
      "å¤´": 2947,
      "require": 2948,
      "517": 2949,
      "`):": 2950,
      "èĸĽ": 2951,
      "led": 2952,
      "219": 2953,
      "Ġ79": 2954,
      "çĶµ": 2955,
      "LM": 2956,
      "ze": 2957,
      "é»İ": 2958,
      "processing": 2959,
      "è¨Ģ": 2960,
      "è½¦": 2961,
      "txt": 2962,
      "sold": 2963,
      "object": 2964,
      "519": 2965,
      "è©": 2966,
      "ĠColumn": 2967,
      "æ®µ": 2968,
      "Ġdict": 2969,
      "åľº": 2970,
      "èķ": 2971,
      "(?": 2972,
      "Ġencoder": 2973,
      "447": 2974,
      "lace": 2975,
      "åĨ¬": 2976,
      "ç¶": 2977,
      "åºĶ": 2978,
      "åĪ¶": 2979,
      "weights": 2980,
      "æī¬": 2981,
      "bool": 2982,
      "ittest": 2983,
      "Ġsymbol": 2984,
      "ting": 2985,
      "ä»·": 2986,
      "Ġ256": 2987,
      "éĤ±": 2988,
      "models": 2989,
      "bias": 2990,
      "((": 2991,
      "æ¸¸": 2992,
      "åĿ¤": 2993,
      "ference": 2994,
      "auto": 2995,
      "Ġsize": 2996,
      "acc": 2997,
      "ithub": 2998,
      "EN": 2999,
      "block": 3000,
      "474": 3001,
      "åª": 3002,
      "Ġstri": 3003,
      "Ġurl": 3004,
      "çª": 3005,
      "nx": 3006,
      "map": 3007,
      "Ġvn": 3008,
      "alog": 3009,
      "ref": 3010,
      "èµĽ": 3011,
      "Ġsh": 3012,
      "9547": 3013,
      "åīĳ": 3014,
      "éĦ": 3015,
      "erver": 3016,
      "çĦ¶": 3017,
      "1236": 3018,
      "484": 3019,
      "é¥": 3020,
      "ules": 3021,
      "å°Ĩ": 3022,
      "sl": 3023,
      "å°¤": 3024,
      "æľŁ": 3025,
      "FloatTensor": 3026,
      "files": 3027,
      "501": 3028,
      "github": 3029,
      "èĭ¥": 3030,
      "fx": 3031,
      "medi": 3032,
      "èİ²": 3033,
      "ç§ĳå¤«": 3034,
      "è¿Ĳ": 3035,
      "èĢħ": 3036,
      "èª": 3037,
      "Ġloss": 3038,
      "å½©": 3039,
      "æ´ģ": 3040,
      "Ġro": 3041,
      "update": 3042,
      "å»·": 3043,
      "ä¹ħ": 3044,
      "Ġelif": 3045,
      "Ġinst": 3046,
      "èĢģ": 3047,
      "449": 3048,
      "çĿ": 3049,
      "MAKE": 3050,
      "temp": 3051,
      "Ġcode": 3052,
      "ixed": 3053,
      "year": 3054,
      "Ġprovided": 3055,
      "675029": 3056,
      "9547675029": 3057,
      "ĠCon": 3058,
      "Ġformat": 3059,
      "ments": 3060,
      "444": 3061,
      "éĻ³": 3062,
      "ç¥ŀ": 3063,
      "479": 3064,
      "used": 3065,
      "çĮ": 3066,
      "pad": 3067,
      "perator": 3068,
      "},": 3069,
      "çīĽ": 3070,
      "vocab": 3071,
      "Ġ\"_": 3072,
      "487": 3073,
      "ls": 3074,
      "python": 3075,
      "æ³ī": 3076,
      "446": 3077,
      "777": 3078,
      "è®¡": 3079,
      "ä»¥": 3080,
      "497": 3081,
      "pping": 3082,
      "dropout": 3083,
      "local": 3084,
      ".\"\"\"": 3085,
      "ä½ĵ": 3086,
      "æļ": 3087,
      "æĥħ": 3088,
      "new": 3089,
      "Ġinit": 3090,
      "ç®¡": 3091,
      "Ġallow": 3092,
      "æľĹ": 3093,
      "Ġ88": 3094,
      "å°¹": 3095,
      "æŁ¥": 3096,
      "version": 3097,
      "Ġsequence": 3098,
      "Ġdecoder": 3099,
      "Ġ(\"": 3100,
      "do": 3101,
      "155": 3102,
      "éĤ¹": 3103,
      "476": 3104,
      "åĬ³": 3105,
      "Ġpo": 3106,
      "tuple": 3107,
      "494": 3108,
      "translation": 3109,
      "Token": 3110,
      "pass": 3111,
      "mentation": 3112,
      "hi": 3113,
      "262": 3114,
      "Ġ%": 3115,
      "åĻ": 3116,
      "çĶ³": 3117,
      "åº¦": 3118,
      "Ġany": 3119,
      "TS": 3120,
      "http": 3121,
      "åķĨ": 3122,
      "éĿ¢": 3123,
      "Ġ[]": 3124,
      "ggreg": 3125,
      "èĮĤ": 3126,
      "åĵģ": 3127,
      "èĻİ": 3128,
      "æ©": 3129,
      "èĪį": 3130,
      "æĩ": 3131,
      "Ġcol": 3132,
      "SS": 3133,
      "dices": 3134,
      "âĸ": 3135,
      "988": 3136,
      "CH": 3137,
      "Ġincompatible": 3138,
      "ç»ı": 3139,
      "link": 3140,
      "774": 3141,
      "786": 3142,
      "Ġhave": 3143,
      "the": 3144,
      "writ": 3145,
      "umb": 3146,
      "å¤ĸ": 3147,
      "éĺ¿å°Ķ": 3148,
      "0004": 3149,
      "]]": 3150,
      "åĬī": 3151,
      "angu": 3152,
      "æĪĺ": 3153,
      "é¢ĸ": 3154,
      "æķ¬": 3155,
      "tests": 3156,
      "ç¿ł": 3157,
      "ython": 3158,
      "ĠOR": 3159,
      "ä»²": 3160,
      "åĸĦ": 3161,
      "éĤµ": 3162,
      "Ġinter": 3163,
      "ĠST": 3164,
      "ðŁļ¨ðŁļ¨ðŁļ¨ðŁļ¨ðŁļ¨ðŁļ¨ðŁļ¨ðŁļ¨": 3165,
      "æ±¤": 3166,
      "500": 3167,
      "99999999997": 3168,
      "äºĭ": 3169,
      "æ¾": 3170,
      "Ġty": 3171,
      "Ġ69": 3172,
      "over": 3173,
      "ross": 3174,
      "last": 3175,
      "Ġ[\"": 3176,
      "ä¸¤": 3177,
      "989": 3178,
      "984": 3179,
      "web": 3180,
      "åºĦ": 3181,
      "quet": 3182,
      "Ġad": 3183,
      "post": 3184,
      "åĪ©äºļ": 3185,
      "779": 3186,
      "Ġ67": 3187,
      "æĪ·": 3188,
      "5307": 3189,
      "Ġ68": 3190,
      "Ġí": 3191,
      "ä¸¥": 3192,
      "Ġ{\"": 3193,
      "åĬ©": 3194,
      "invalid": 3195,
      "Ġsupported": 3196,
      "\"),": 3197,
      "åħ«": 3198,
      "987": 3199,
      "conv": 3200,
      "channel": 3201,
      "AG": 3202,
      "50000000002": 3203,
      "Ġimp": 3204,
      "0022": 3205,
      "åħ¥": 3206,
      "onnx": 3207,
      "testing": 3208,
      "èº": 3209,
      "----------------------------------------------------------------": 3210,
      "width": 3211,
      "Ġthen": 3212,
      "ä¸°": 3213,
      "æ¬§": 3214,
      "çī©": 3215,
      "chema": 3216,
      "Ġout": 3217,
      "æī¿": 3218,
      "çĲ¼": 3219,
      "486": 3220,
      "FA": 3221,
      "å¢ŀ": 3222,
      "current": 3223,
      "grad": 3224,
      "anguage": 3225,
      "catalog": 3226,
      "æĦı": 3227,
      "éĳ«": 3228,
      "rt": 3229,
      "åįķ": 3230,
      "å·ŀ": 3231,
      "236": 3232,
      "try": 3233,
      "je": 3234,
      "æ¡ĳ": 3235,
      "az": 3236,
      "KI": 3237,
      "173": 3238,
      "Ġlabels": 3239,
      "ns": 3240,
      "fefe": 3241,
      "ĠYou": 3242,
      "åİ¿": 3243,
      "ĠType": 3244,
      "çĤ¹": 3245,
      "Ġparent": 3246,
      "pache": 3247,
      "face": 3248,
      "åĽŀ": 3249,
      "åĽŃ": 3250,
      "Ġcontrib": 3251,
      "496": 3252,
      "Module": 3253,
      "Ġexcept": 3254,
      "ggregate": 3255,
      "èıĬ": 3256,
      "ç¿ģ": 3257,
      "é¸¿": 3258,
      "Pre": 3259,
      "ç¡": 3260,
      "Ġpath": 3261,
      "ptional": 3262,
      "]),": 3263,
      "rest": 3264,
      "tri": 3265,
      "obj": 3266,
      "DA": 3267,
      "ical": 3268,
      "Ġpast": 3269,
      "tim": 3270,
      "æĢ¡": 3271,
      "ide": 3272,
      "åľ£": 3273,
      "Len": 3274,
      "Ġattn": 3275,
      "èĢĢ": 3276,
      "usal": 3277,
      "Ġgenerated": 3278,
      "åİ»": 3279,
      "266": 3280,
      "ä»Ļ": 3281,
      "park": 3282,
      "lm": 3283,
      "ãĢĤ": 3284,
      "Ġthem": 3285,
      "797": 3286,
      "è¿ĩ": 3287,
      "åŃĿ": 3288,
      "binary": 3289,
      "ification": 3290,
      "ason": 3291,
      "ld": 3292,
      "æ°Ķ": 3293,
      "ZK": 3294,
      "Processor": 3295,
      "Aggregate": 3296,
      "Not": 3297,
      "ĠSt": 3298,
      "fter": 3299,
      "np": 3300,
      "method": 3301,
      "233": 3302,
      "Ġ78": 3303,
      "Exchange": 3304,
      "include": 3305,
      "Ġkeys": 3306,
      "Ġforward": 3307,
      "Ġ74": 3308,
      "821236": 3309,
      "8212361103": 3310,
      "çĽĸ": 3311,
      "scal": 3312,
      "skip": 3313,
      "315": 3314,
      "Ca": 3315,
      "776": 3316,
      "Ġcopy": 3317,
      "è§£": 3318,
      "Lay": 3319,
      "SY": 3320,
      "stri": 3321,
      "Ġpadding": 3322,
      "åĪ«": 3323,
      "ĠInput": 3324,
      "Ġtransformers": 3325,
      "794": 3326,
      "ä¹Ŀ": 3327,
      "ik": 3328,
      "Ġpatch": 3329,
      "main": 3330,
      "ogle": 3331,
      "éĵģ": 3332,
      "cached": 3333,
      "ĠTime": 3334,
      "audio": 3335,
      "vari": 3336,
      "api": 3337,
      "åħŃ": 3338,
      "åĿ¦": 3339,
      "ts": 3340,
      "Value": 3341,
      "Ġquery": 3342,
      "163": 3343,
      "Ġother": 3344,
      "è´º": 3345,
      "åįĩ": 3346,
      "åĨ°": 3347,
      "helper": 3348,
      "çºª": 3349,
      "TEM": 3350,
      "='": 3351,
      "REQUAL": 3352,
      "ĠSTREQUAL": 3353,
      "è¾Ľ": 3354,
      "std": 3355,
      "().__": 3356,
      "Ġ0000": 3357,
      "Ġmatch": 3358,
      "çĽĬ": 3359,
      "formation": 3360,
      "va": 3361,
      "çģ«": 3362,
      "æģĴ": 3363,
      "wait": 3364,
      "Ġvalues": 3365,
      "zer": 3366,
      "å¸Ī": 3367,
      "äº¤": 3368,
      "classes": 3369,
      "ç¤¼": 3370,
      "NAM": 3371,
      "Row": 3372,
      "wh": 3373,
      "keys": 3374,
      "å®Ī": 3375,
      "Ada": 3376,
      "ä¿®": 3377,
      "script": 3378,
      "eg": 3379,
      "055": 3380,
      "RL": 3381,
      "ify": 3382,
      "123": 3383,
      "åĵ²": 3384,
      "())": 3385,
      "ugg": 3386,
      "éĥĿ": 3387,
      "Ġprocessor": 3388,
      "Ġdistributed": 3389,
      "mediate": 3390,
      "Ġtime": 3391,
      "prepare": 3392,
      "Ġtokens": 3393,
      "éĤ¦": 3394,
      "çİ°": 3395,
      "çĲĥ": 3396,
      "lobal": 3397,
      "stream": 3398,
      "Ġdoes": 3399,
      "opt": 3400,
      "Ġ66": 3401,
      "åħĨ": 3402,
      "anner": 3403,
      "Ġchang": 3404,
      "ĠFilter": 3405,
      "Ġusing": 3406,
      "986": 3407,
      "æµģ": 3408,
      "Ġrun": 3409,
      "ops": 3410,
      "Adapter": 3411,
      "142": 3412,
      "sky": 3413,
      "æĳ": 3414,
      "Ġeach": 3415,
      "éĤ£": 3416,
      "æĻ¨": 3417,
      "éħ¸": 3418,
      "133": 3419,
      "cal": 3420,
      "ĠReturn": 3421,
      "gn": 3422,
      "Trained": 3423,
      "OL": 3424,
      "è¢«": 3425,
      "ernel": 3426,
      "params": 3427,
      "\"],": 3428,
      "çĶĺ": 3429,
      "ĠAS": 3430,
      "upload": 3431,
      "Hash": 3432,
      "çĲª": 3433,
      "locale": 3434,
      "nection": 3435,
      "Ġnote": 3436,
      "Ġos": 3437,
      "åĩĮ": 3438,
      "=(": 3439,
      "796": 3440,
      "Ġav": 3441,
      "èŃ": 3442,
      "none": 3443,
      "Ġinformation": 3444,
      "*,": 3445,
      "extract": 3446,
      "é¦ĸ": 3447,
      "æĸ¯åį¡": 3448,
      "ssib": 3449,
      "regist": 3450,
      "æ¦": 3451,
      "sg": 3452,
      "èĳĽ": 3453,
      "IE": 3454,
      "AD": 3455,
      "0000000003": 3456,
      "AE": 3457,
      "ĠHash": 3458,
      "é¼": 3459,
      "ffffffffffffffff": 3460,
      "[-": 3461,
      "èĤ¡": 3462,
      "XT": 3463,
      "2559": 3464,
      "Ġspark": 3465,
      "html": 3466,
      "sist": 3467,
      "145": 3468,
      "SYS": 3469,
      "dataset": 3470,
      "Ġ]": 3471,
      "å°¼äºļ": 3472,
      "RIVA": 3473,
      "Vi": 3474,
      "âĹĮÌ": 3475,
      "æ¶ħ": 3476,
      "RIVATE": 3477,
      "eval": 3478,
      "}.": 3479,
      "ily": 3480,
      "Par": 3481,
      "555": 3482,
      "(),": 3483,
      "Ġwrit": 3484,
      "Ġstride": 3485,
      "746": 3486,
      "Ġabout": 3487,
      "[:,": 3488,
      "ĠScan": 3489,
      "ç¯": 3490,
      "Ġfield": 3491,
      "ush": 3492,
      "Long": 3493,
      "Ġ('": 3494,
      "ĠInputAdapter": 3495,
      "Ġ99": 3496,
      "573": 3497,
      "SYSTEM": 3498,
      "0006": 3499,
      "tensors": 3500,
      "èģĶ": 3501,
      "é»ĺ": 3502,
      "ds": 3503,
      "Ġfound": 3504,
      "ç©º": 3505,
      "dat": 3506,
      "Ġstring": 3507,
      "æĴ": 3508,
      "inear": 3509,
      "Ġparquet": 3510,
      "mult": 3511,
      "072": 3512,
      "pect": 3513,
      "Ġtemp": 3514,
      "of": 3515,
      "ĠPRIVATE": 3516,
      "532": 3517,
      "7034": 3518,
      "åĮħ": 3519,
      "imal": 3520,
      "CA": 3521,
      "En": 3522,
      "igh": 3523,
      "prob": 3524,
      "å¤«æĸ¯åŁº": 3525,
      "Ġlo": 3526,
      "çĽ´": 3527,
      "ssibly": 3528,
      ":`~": 3529,
      "Ġone": 3530,
      "033": 3531,
      "171": 3532,
      "è¶Ļ": 3533,
      "195": 3534,
      "Fixed": 3535,
      "ters": 3536,
      "ä¿ŀ": 3537,
      "9999999996": 3538,
      "Ctr": 3539,
      "æ¬¡": 3540,
      "Ġob": 3541,
      "amples": 3542,
      "çĬ": 3543,
      "().": 3544,
      "rint": 3545,
      "åĻ¨": 3546,
      "dynam": 3547,
      "èĮ¹": 3548,
      ")]": 3549,
      "xy": 3550,
      "Ġcall": 3551,
      "ling": 3552,
      "éĩı": 3553,
      "Ġdefaults": 3554,
      "special": 3555,
      "00000000000000000000000000000000": 3556,
      "content": 3557,
      "close": 3558,
      "çµ": 3559,
      "DataB": 3560,
      "...": 3561,
      "æĬ¥": 3562,
      "names": 3563,
      "çıł": 3564,
      "Bo": 3565,
      "393": 3566,
      "ient": 3567,
      "FixedInput": 3568,
      "éĽ¯": 3569,
      "Ġweight": 3570,
      "request": 3571,
      "530746": 3572,
      "The": 3573,
      "eps": 3574,
      "165": 3575,
      "Ġrequired": 3576,
      "7034530746": 3577,
      "docstring": 3578,
      "ainers": 3579,
      "checkpoint": 3580,
      "375": 3581,
      "Ġ`(": 3582,
      "arTo": 3583,
      "ĠColumnarTo": 3584,
      "ĠColumnarToRow": 3585,
      "èİ¹": 3586,
      "185": 3587,
      "å®ŀ": 3588,
      "ç»Ħ": 3589,
      "884": 3590,
      "ution": 3591,
      "çĦ¦": 3592,
      "äº§": 3593,
      "Ġmanner": 3594,
      "server": 3595,
      "063": 3596,
      "Ġtensor": 3597,
      "google": 3598,
      "ç§ĳå¨ĥ": 3599,
      "Arg": 3600,
      "062": 3601,
      "mark": 3602,
      "Ġclasses": 3603,
      "ud": 3604,
      "Unknown": 3605,
      "mpty": 3606,
      "Ġpixel": 3607,
      "åłĤ": 3608,
      "èī²": 3609,
      "çº¿": 3610,
      "888": 3611,
      "override": 3612,
      "åĤħ": 3613,
      "ages": 3614,
      "ameters": 3615,
      "æ¿": 3616,
      "887": 3617,
      "æ¥ļ": 3618,
      "ä¸ĥ": 3619,
      "ova": 3620,
      "ĠLi": 3621,
      "Key": 3622,
      "verse": 3623,
      "042": 3624,
      "ename": 3625,
      "status": 3626,
      "perties": 3627,
      "unittest": 3628,
      "æģ°": 3629,
      "types": 3630,
      "182": 3631,
      "å²³": 3632,
      "æķĻ": 3633,
      "UB": 3634,
      "Ġq": 3635,
      "åĩ¡": 3636,
      "æīĵ": 3637,
      "field": 3638,
      "575": 3639,
      "Ġ512": 3640,
      "Ġvariable": 3641,
      "889": 3642,
      "estamp": 3643,
      "ME": 3644,
      "Ar": 3645,
      "æĽ²": 3646,
      "ç«¥": 3647,
      "è¼": 3648,
      "attern": 3649,
      "Ġwarning": 3650,
      "ESS": 3651,
      "111": 3652,
      "897": 3653,
      "VE": 3654,
      "]`": 3655,
      "563": 3656,
      "ension": 3657,
      "ugging": 3658,
      "ck": 3659,
      "æŃ»": 3660,
      "by": 3661,
      "gre": 3662,
      "083": 3663,
      "Ġwidth": 3664,
      "193": 3665,
      "çĽĺ": 3666,
      "Ġway": 3667,
      "andas": 3668,
      "Ġload": 3669,
      "894": 3670,
      "525": 3671,
      "fl": 3672,
      "593": 3673,
      "0103": 3674,
      "Base": 3675,
      "éĻ¢": 3676,
      "IG": 3677,
      "èº«": 3678,
      "Ġ!": 3679,
      "afe": 3680,
      "ç»ĵ": 3681,
      "522": 3682,
      "md": 3683,
      "TP": 3684,
      "pn": 3685,
      "èĵī": 3686,
      "my": 3687,
      "é»ĳ": 3688,
      "past": 3689,
      "Mix": 3690,
      "parse": 3691,
      "mem": 3692,
      "Ġ98": 3693,
      "quantity": 3694,
      "ap": 3695,
      "Ġpad": 3696,
      "Ġcat": 3697,
      "åı°": 3698,
      "é¢ľ": 3699,
      "private": 3700,
      "ock": 3701,
      "èĬĿ": 3702,
      "585": 3703,
      "Layer": 3704,
      "vel": 3705,
      "092": 3706,
      "Ġprint": 3707,
      "ĠĠĠĠĠĠĠĠĠĠĠĠĠĠĠĠĠĠĠĠĠĠĠĠĠĠĠĠĠĠĠĠĠĠĠĠĠĠĠĠĠĠĠĠĠĠĠĠĠĠĠĠĠĠĠĠĠĠĠĠĠĠĠĠ": 3708,
      "''": 3709,
      "565": 3710,
      "demo": 3711,
      "part": 3712,
      "æ»ķ": 3713,
      "Ġstate": 3714,
      "é¾ļ": 3715,
      "ĠValue": 3716,
      "å°Ķå¾·": 3717,
      "items": 3718,
      "ech": 3719,
      "045": 3720,
      "Ġsupports": 3721,
      "å®ĺ": 3722,
      "factor": 3723,
      "00000000004": 3724,
      "372": 3725,
      "Code": 3726,
      "043": 3727,
      "éº¦": 3728,
      "switch": 3729,
      "572": 3730,
      "535": 3731,
      "æĮĩ": 3732,
      "éĵŃ": 3733,
      "andler": 3734,
      "Text": 3735,
      "inux": 3736,
      "buf": 3737,
      "065": 3738,
      "545": 3739,
      "æĸ¯å¡Ķ": 3740,
      "583": 3741,
      "082": 3742,
      "Ġinclude": 3743,
      "å¤į": 3744,
      "LC": 3745,
      "æ¥Ĭ": 3746,
      "ĠCannot": 3747,
      "151": 3748,
      "otal": 3749,
      "Ġ`_": 3750,
      "å¦¹": 3751,
      "èµĦ": 3752,
      "595": 3753,
      "å¥Ī": 3754,
      "582": 3755,
      "å²©": 3756,
      "ake": 3757,
      "é¦¬": 3758,
      "wra": 3759,
      "ĠClass": 3760,
      "562": 3761,
      "Ġimages": 3762,
      "options": 3763,
      "æŀľ": 3764,
      "ä¸ĺ": 3765,
      "Set": 3766,
      "sistent": 3767,
      "Tr": 3768,
      "275": 3769,
      "085": 3770,
      "592": 3771,
      "ĠZ": 3772,
      "lip": 3773,
      "æ¯ħ": 3774,
      "183": 3775,
      "ĠCh": 3776,
      "542": 3777,
      "345": 3778,
      "Dict": 3779,
      "Ġ!=": 3780,
      "first": 3781,
      "543": 3782,
      "271": 3783,
      "mer": 3784,
      "Ġtry": 3785,
      "Ġdefine": 3786,
      "035": 3787,
      "533": 3788,
      "å·¦": 3789,
      "éķ·": 3790,
      "ç¿Ķ": 3791,
      "Ġasync": 3792,
      "backend": 3793,
      "å°Ħ": 3794,
      "headers": 3795,
      "less": 3796,
      "å¯¹": 3797,
      "ç¹": 3798,
      "251": 3799,
      "093": 3800,
      "Ġlogits": 3801,
      "Ġrefer": 3802,
      "å·§": 3803,
      "886": 3804,
      "0028": 3805,
      "åĿİ": 3806,
      "çģµ": 3807,
      "yan": 3808,
      "523": 3809,
      "æĢĢ": 3810,
      "åľĭ": 3811,
      "é²į": 3812,
      "075": 3813,
      "æıĲ": 3814,
      "ĠĠĠĠĠĠĠĠĠĠĠĠ": 3815,
      "Ġrequest": 3816,
      "è¯Ń": 3817,
      "æŁ¯": 3818,
      "095": 3819,
      "ources": 3820,
      "èĨ": 3821,
      "Ġallowed": 3822,
      "ITH": 3823,
      "Image": 3824,
      "coded": 3825,
      "Ġ76": 3826,
      "Mo": 3827,
      "ĠValueError": 3828,
      "directories": 3829,
      "896": 3830,
      "aries": 3831,
      "ton": 3832,
      "æĵ": 3833,
      "èĤ²": 3834,
      "NAME": 3835,
      "join": 3836,
      "ricted": 3837,
      "ell": 3838,
      "mpt": 3839,
      "çĽ®": 3840,
      "0007": 3841,
      "docs": 3842,
      "Class": 3843,
      "La": 3844,
      "lice": 3845,
      "window": 3846,
      "åĳĺ": 3847,
      "åŃĺ": 3848,
      "ick": 3849,
      "Ġtrain": 3850,
      "mm": 3851,
      "å¼ı": 3852,
      "lag": 3853,
      "Ġrange": 3854,
      "Ġ100": 3855,
      "åĪ°": 3856,
      "Ġaccess": 3857,
      "(**": 3858,
      "æ¥ł": 3859,
      "Ġfirst": 3860,
      "qui": 3861,
      "ĠBroadcastHash": 3862,
      "ĠBroadcastHashJoin": 3863,
      "åĭ¤": 3864,
      "325": 3865,
      "download": 3866,
      "vid": 3867,
      "ç§°": 3868,
      "342": 3869,
      "off": 3870,
      "æĶ¶": 3871,
      "æ¨Ĭ": 3872,
      "051": 3873,
      "lim": 3874,
      "59809": 3875,
      "æĻ¶": 3876,
      "ĠSee": 3877,
      "Ġchanges": 3878,
      "å¾®": 3879,
      "sm": 3880,
      "Mixin": 3881,
      "pixel": 3882,
      "éĿŀ": 3883,
      "IS": 3884,
      "5728": 3885,
      "æľĢ": 3886,
      "Ġarg": 3887,
      "struct": 3888,
      "éķĩ": 3889,
      "å¥İ": 3890,
      "ĠAttribute": 3891,
      "help": 3892,
      "raph": 3893,
      "èĭĹ": 3894,
      "365": 3895,
      "è¿Ī": 3896,
      "èīº": 3897,
      "èĽ": 3898,
      "073": 3899,
      "323": 3900,
      "built": 3901,
      "392": 3902,
      "245": 3903,
      "arrow": 3904,
      "322": 3905,
      "yle": 3906,
      "243": 3907,
      "Ġplease": 3908,
      "Ġ//": 3909,
      "å½±": 3910,
      "OT": 3911,
      "ĠOF": 3912,
      "linux": 3913,
      "Ġend": 3914,
      "é»ĥ": 3915,
      "ater": 3916,
      "ributes": 3917,
      "Ġstart": 3918,
      "è¯ķ": 3919,
      "Ġmanual": 3920,
      "å£°": 3921,
      "0014": 3922,
      "çıŃ": 3923,
      "475": 3924,
      "ither": 3925,
      "373": 3926,
      "598092559": 3927,
      "åĬŁ": 3928,
      "Ġhttps": 3929,
      "ta": 3930,
      "sequence": 3931,
      "æ»¡": 3932,
      "æİ¨": 3933,
      "restricted": 3934,
      "stru": 3935,
      "cls": 3936,
      "åį¿": 3937,
      "ftware": 3938,
      "0008": 3939,
      "æ¹ĸ": 3940,
      "only": 3941,
      "dev": 3942,
      "consistent": 3943,
      "Ġhttp": 3944,
      "385": 3945,
      "æľĽ": 3946,
      "ice": 3947,
      "Gener": 3948,
      "rec": 3949,
      "LS": 3950,
      "645": 3951,
      "command": 3952,
      "LongTensor": 3953,
      "382": 3954,
      "æŁı": 3955,
      "141": 3956,
      "modules": 3957,
      "quee": 3958,
      "æ´¥": 3959,
      "æ³¨": 3960,
      "021": 3961,
      "ĠThese": 3962,
      "tain": 3963,
      "ĠPlease": 3964,
      "343": 3965,
      "292": 3966,
      "ç«¹": 3967,
      "coun": 3968,
      "622": 3969,
      "Ġvia": 3970,
      "generate": 3971,
      "Ġtargets": 3972,
      "131": 3973,
      "nail": 3974,
      "121": 3975,
      "672": 3976,
      "695": 3977,
      "åįĵ": 3978,
      "693": 3979,
      "ĠObject": 3980,
      "umbnail": 3981,
      "ç²¾": 3982,
      "æ¡¥": 3983,
      "tw": 3984,
      "992": 3985,
      "Tokenizer": 3986,
      "è¬": 3987,
      "ĠKe": 3988,
      "cale": 3989,
      "Ġits": 3990,
      "è¯Ĺ": 3991,
      "ç¾©": 3992,
      "'),": 3993,
      "Ġeas": 3994,
      "Ġmult": 3995,
      "çİ¯": 3996,
      "å¦®": 3997,
      "IL": 3998,
      "é©¬å°Ķ": 3999,
      "éĩĩ": 4000,
      "abc": 4001,
      "Ġlanguage": 4002,
      "ĠAuto": 4003,
      "Tester": 4004,
      "åŀĭ": 4005,
      "995": 4006,
      "çĤ³": 4007,
      "bound": 4008,
      "åĢ©": 4009,
      "å¯Ł": 4010,
      "AT": 4011,
      "work": 4012,
      "vent": 4013,
      "0018": 4014,
      "çŃĸ": 4015,
      "293": 4016,
      "Ġaudio": 4017,
      "æłĩ": 4018,
      "With": 4019,
      "éĮ": 4020,
      "ging": 4021,
      "191": 4022,
      "ĠWITH": 4023,
      "=[": 4024,
      "Ġnumber": 4025,
      "CU": 4026,
      "label": 4027,
      "æĹº": 4028,
      "æĲ": 4029,
      "Ġcomplex": 4030,
      "625": 4031,
      "161": 4032,
      "ä¼į": 4033,
      "Ġdoc": 4034,
      "ĠĠĠĠĠĠĠĠĠĠĠĠĠĠ": 4035,
      "åĲ³": 4036,
      "Ġup": 4037,
      "ä»Ĭ": 4038,
      "brand": 4039,
      "normal": 4040,
      "abled": 4041,
      "333": 4042,
      "242": 4043,
      "273": 4044,
      "ĠHashAggregate": 4045,
      "hh": 4046,
      "æĶ¾": 4047,
      "NY": 4048,
      "æĺŃ": 4049,
      "272": 4050,
      "Ġcs": 4051,
      "è¡¨": 4052,
      "éľ²": 4053,
      "4157": 4054,
      "Ġcontain": 4055,
      "å¨ĩ": 4056,
      "æīĢ": 4057,
      "eff": 4058,
      "jected": 4059,
      "492": 4060,
      "Ġsp": 4061,
      "åľŁ": 4062,
      "licit": 4063,
      "ĠArgs": 4064,
      "prefix": 4065,
      "2000": 4066,
      "å°Ķçī¹": 4067,
      "170": 4068,
      "Ġlast": 4069,
      "ada": 4070,
      "template": 4071,
      "squee": 4072,
      "295": 4073,
      "Ġweb": 4074,
      "Ġcurrent": 4075,
      "ĠCON": 4076,
      "enc": 4077,
      "miss": 4078,
      "éĽĨ": 4079,
      "è¯ºå¤«": 4080,
      "iple": 4081,
      "685": 4082,
      "LIC": 4083,
      "856": 4084,
      "çĹħ": 4085,
      "bone": 4086,
      "ä¾ĭ": 4087,
      "011": 4088,
      "è£ķ": 4089,
      "285": 4090,
      "99999999996": 4091,
      "éŁ³": 4092,
      "åªĽ": 4093,
      "(-": 4094,
      "åıį": 4095,
      "682": 4096,
      "ç£Ĭ": 4097,
      "0016": 4098,
      "Ġcor": 4099,
      "è°ĥ": 4100,
      "={": 4101,
      "Ġversion": 4102,
      "ian": 4103,
      "æ¥¼": 4104,
      "åıĺ": 4105,
      "993": 4106,
      "383": 4107,
      "ç³»": 4108,
      "çĤİ": 4109,
      "692": 4110,
      "correct": 4111,
      "è¡Ģ": 4112,
      "æĸ¯åºĵ": 4113,
      "æ´²": 4114,
      "åĥ": 4115,
      "Ġneed": 4116,
      "335": 4117,
      "åĢª": 4118,
      "mon": 4119,
      "det": 4120,
      "ĠĠĠĠĠĠĠĠĠĠĠĠĠĠĠĠĠĠĠĠĠĠĠĠĠĠĠĠĠĠĠĠĠĠĠĠĠĠĠĠĠĠĠĠĠĠĠĠ": 4121,
      "éĹ«": 4122,
      "Ġmust": 4123,
      "Ġover": 4124,
      "\"{": 4125,
      "mt": 4126,
      "Is": 4127,
      "cated": 4128,
      "annel": 4129,
      "ĠDjango": 4130,
      "æĺ¾": 4131,
      "è»": 4132,
      "write": 4133,
      "ingle": 4134,
      "æµİ": 4135,
      "å¯¿": 4136,
      "assertTrue": 4137,
      "ç¬ĳ": 4138,
      "181": 4139,
      "Ġmod": 4140,
      "æ·±": 4141,
      "Ġvalid": 4142,
      "åĪĿ": 4143,
      "hole": 4144,
      "sd": 4145,
      "623": 4146,
      "Ġinconsistent": 4147,
      "range": 4148,
      "print": 4149,
      "642": 4150,
      "decomp": 4151,
      "protobuf": 4152,
      "Linear": 4153,
      "ä½į": 4154,
      "591": 4155,
      "éĹ®": 4156,
      "libraries": 4157,
      "363": 4158,
      "ttention": 4159,
      "åĨł": 4160,
      "Ġseq": 4161,
      "æĭĽ": 4162,
      "è¦ģ": 4163,
      "0027": 4164,
      "BA": 4165,
      "çķĻ": 4166,
      "light": 4167,
      "Ġmaint": 4168,
      "0013": 4169,
      "Ġ112": 4170,
      "boxes": 4171,
      "points": 4172,
      "956": 4173,
      "KO": 4174,
      "æĪĳ": 4175,
      "*):": 4176,
      "mode": 4177,
      "sym": 4178,
      "âĢľ": 4179,
      "âĢĿ": 4180,
      "è·ĥ": 4181,
      "iteral": 4182,
      "Ġ):": 4183,
      "åİĦ": 4184,
      "dynamo": 4185,
      "Ġpart": 4186,
      "Sh": 4187,
      "Ġproperties": 4188,
      "Ġfeature": 4189,
      "thread": 4190,
      "urations": 4191,
      "Or": 4192,
      "EST": 4193,
      "cre": 4194,
      "531": 4195,
      "282": 4196,
      "ced": 4197,
      "Ġcreate": 4198,
      "helpers": 4199,
      "Sw": 4200,
      "squeeze": 4201,
      "ä»İ": 4202,
      "PH": 4203,
      "çħ§": 4204,
      "50000000003": 4205,
      "Ġcatboost": 4206,
      "å¥ĳ": 4207,
      "åĿĩ": 4208,
      "ç¢§": 4209,
      "683": 4210,
      "Condition": 4211,
      "ç¥Ŀ": 4212,
      "ä»¤": 4213,
      "ID": 4214,
      "lied": 4215,
      "78237": 4216,
      "ager": 4217,
      "laylist": 4218,
      "0024": 4219,
      "ores": 4220,
      "scale": 4221,
      "Norm": 4222,
      "rope": 4223,
      "å±ķ": 4224,
      "training": 4225,
      "ä¹¡": 4226,
      "434": 4227,
      "521": 4228,
      "Ġcount": 4229,
      "PreTrained": 4230,
      "èĬĤ": 4231,
      "643": 4232,
      "Ġapplic": 4233,
      "resent": 4234,
      "Ġoverride": 4235,
      "ous": 4236,
      "ates": 4237,
      "modeling": 4238,
      "çĶ²": 4239,
      "571": 4240,
      "Ġinstru": 4241,
      "223": 4242,
      "åį¡å°Ķ": 4243,
      "ĠLa": 4244,
      "0058": 4245,
      "èĩ£": 4246,
      "system": 4247,
      "Ġeasily": 4248,
      "551": 4249,
      "éĥ½": 4250,
      "ises": 4251,
      "0012": 4252,
      "404": 4253,
      "pth": 4254,
      "task": 4255,
      "izes": 4256,
      "222": 4257,
      "941": 4258,
      "Ġpri": 4259,
      "lower": 4260,
      "å´ĩ": 4261,
      "context": 4262,
      "235": 4263,
      "50278237": 4264,
      "5027823792": 4265,
      "sample": 4266,
      "è«": 4267,
      "media": 4268,
      "904": 4269,
      "_[": 4270,
      "541": 4271,
      "generic": 4272,
      "Lo": 4273,
      "Ġlength": 4274,
      "long": 4275,
      "0034": 4276,
      "pool": 4277,
      "ä¹Ī": 4278,
      "ĠANY": 4279,
      "è´¢": 4280,
      "Ġconfigurations": 4281,
      "user": 4282,
      "225": 4283,
      "265": 4284,
      "Ġinstructions": 4285,
      "éĺŁ": 4286,
      "wise": 4287,
      "ature": 4288,
      "061": 4289,
      "Ġrejected": 4290,
      "0009": 4291,
      "èĺ": 4292,
      "0048": 4293,
      "wer": 4294,
      "Ġeither": 4295,
      "éĨ": 4296,
      "dicts": 4297,
      "cpu": 4298,
      "031": 4299,
      "å®£": 4300,
      "åĨį": 4301,
      "fit": 4302,
      "AGES": 4303,
      "async": 4304,
      "yat": 4305,
      "æ¤": 4306,
      "ĠNi": 4307,
      "é³": 4308,
      "561": 4309,
      "queries": 4310,
      "Ġcustom": 4311,
      "yandex": 4312,
      "pose": 4313,
      "æłĭ": 4314,
      "ĠPython": 4315,
      "673": 4316,
      "directory": 4317,
      "MESS": 4318,
      "timestamp": 4319,
      "081": 4320,
      "è´Ŀå°Ķ": 4321,
      "åĨľ": 4322,
      "èĢĮ": 4323,
      "unknown": 4324,
      "0032": 4325,
      "Ġ+=": 4326,
      "071": 4327,
      "Ġcannot": 4328,
      "å³¶": 4329,
      "èĵĿ": 4330,
      "seil": 4331,
      "open": 4332,
      "aex": 4333,
      "ä¸İ": 4334,
      "ç¸": 4335,
      "ping": 4336,
      "Ġ{}": 4337,
      "static": 4338,
      "æ¶¦": 4339,
      "283": 4340,
      "ĠPer": 4341,
      "0017": 4342,
      "Ġincorrect": 4343,
      "Ġmaintainers": 4344,
      "è¿Ļ": 4345,
      "091": 4346,
      "ility": 4347,
      "å½ĵ": 4348,
      "éĹ´": 4349,
      "ä¾Ŀ": 4350,
      "TER": 4351,
      "èĢ¶å¤«": 4352,
      "abseil": 4353,
      "åįł": 4354,
      "ables": 4355,
      "263": 4356,
      "yatool": 4357,
      "å¼ĺ": 4358,
      "2945": 4359,
      "sources": 4360,
      "Ġmin": 4361,
      "exporter": 4362,
      "041": 4363,
      "];": 4364,
      "åĬ¡": 4365,
      "notnull": 4366,
      "NS": 4367,
      "581": 4368,
      "795": 4369,
      "150": 4370,
      "Ġawait": 4371,
      "ansformer": 4372,
      "########": 4373,
      "æĸ¯æīĺ": 4374,
      "szh": 4375,
      "å®¾": 4376,
      "æ²¹": 4377,
      "0044": 4378,
      "Ġheight": 4379,
      "Ġ80": 4380,
      "Ġright": 4381,
      "copy": 4382,
      "åįĬ": 4383,
      "LO": 4384,
      "Ġindex": 4385,
      "ç¤º": 4386,
      "499": 4387,
      "ren": 4388,
      "ĠNa": 4389,
      "665": 4390,
      "çľ¼": 4391,
      "èµ°": 4392,
      "Arguments": 4393,
      "box": 4394,
      "è£ħ": 4395,
      "çĪ¾": 4396,
      "ä¸¾": 4397,
      "Ġcache": 4398,
      "Open": 4399,
      "create": 4400,
      "520": 4401,
      "è§Ĥ": 4402,
      "å¸ĥæĭī": 4403,
      "èĪª": 4404,
      "Ġvocab": 4405,
      "éĴ¦": 4406,
      "aff": 4407,
      "Ġresponse": 4408,
      "cr": 4409,
      "æł¡": 4410,
      "æį·": 4411,
      "MESSAGES": 4412,
      "Ġsr": 4413,
      "Ġargs": 4414,
      "331": 4415,
      "æ±ł": 4416,
      "åŃ«": 4417,
      "Ġspecific": 4418,
      "}\")": 4419,
      "321": 4420,
      "Ġline": 4421,
      "builtins": 4422,
      "fil": 4423,
      "ĠIS": 4424,
      "è§ģ": 4425,
      "Ġconvert": 4426,
      "CESS": 4427,
      "Qu": 4428,
      "120": 4429,
      "indices": 4430,
      "0029": 4431,
      "è©¹": 4432,
      "UBLIC": 4433,
      "ytes": 4434,
      "140": 4435,
      "Ġyour": 4436,
      "Ġsk": 4437,
      "absl": 4438,
      "su": 4439,
      "source": 4440,
      "æĿ¿": 4441,
      "çĲ¦": 4442,
      "Ġlimit": 4443,
      "361": 4444,
      "auth": 4445,
      "libf": 4446,
      "ç·": 4447,
      "0039": 4448,
      "Ġvaex": 4449,
      "keep": 4450,
      "ĠCMAKE": 4451,
      "An": 4452,
      "Operator": 4453,
      "ĠPUBLIC": 4454,
      "lean": 4455,
      "meta": 4456,
      "Form": 4457,
      "Stage": 4458,
      "2627": 4459,
      "ĠFor": 4460,
      "çıĬ": 4461,
      "ars": 4462,
      "å¹²": 4463,
      "Codegen": 4464,
      "Ġ96": 4465,
      "grid": 4466,
      "casting": 4467,
      "ä¸ŃåĽ½": 4468,
      "çĶ¨æĪ·": 4469,
      "patches": 4470,
      "ĠIN": 4471,
      "================================================================": 4472,
      "åºı": 4473,
      "ĠExchange": 4474,
      "åºŃ": 4475,
      "ote": 4476,
      "æ¶²": 4477,
      "like": 4478,
      "Ġign": 4479,
      "functional": 4480,
      "0000000004": 4481,
      "optim": 4482,
      "çº§": 4483,
      "Le": 4484,
      "(?:": 4485,
      "chunk": 4486,
      "column": 4487,
      "Ġws": 4488,
      "ĠReturns": 4489,
      "}\"": 4490,
      "locks": 4491,
      "0038": 4492,
      "Ġinitial": 4493,
      "0889": 4494,
      "å±Ģ": 4495,
      "æ®·": 4496,
      "Ġsin": 4497,
      "710022": 4498,
      "Ġform": 4499,
      "785": 4500,
      "initial": 4501,
      "4157710022": 4502,
      "ied": 4503,
      "åį°": 4504,
      "ç»Ĩ": 4505,
      "ethod": 4506,
      "peline": 4507,
      "991": 4508,
      "ector": 4509,
      "åıĹ": 4510,
      "èģª": 4511,
      "0037": 4512,
      "save": 4513,
      "tractor": 4514,
      "è¶Ĭ": 4515,
      "adata": 4516,
      "Ġencoding": 4517,
      "éĤ¢": 4518,
      "çĶ±": 4519,
      "éļ¾": 4520,
      "fn": 4521,
      "rot": 4522,
      "æĶ¯": 4523,
      "AC": 4524,
      "encoding": 4525,
      "Ġfa": 4526,
      "æ¸¯": 4527,
      "0019": 4528,
      "éľĩ": 4529,
      "ordin": 4530,
      "604": 4531,
      "482": 4532,
      "å«": 4533,
      "493": 4534,
      "ĉĉ": 4535,
      "OUT": 4536,
      "Ġmet": 4537,
      "æĢ»": 4538,
      "splay": 4539,
      "Ġinstead": 4540,
      ".\"": 4541,
      "forward": 4542,
      "~~~~~~~~": 4543,
      "func": 4544,
      "åĬ©æīĭ": 4545,
      "Vision": 4546,
      "IR": 4547,
      "åŃ¸": 4548,
      "expert": 4549,
      "å¹¸": 4550,
      "socket": 4551,
      "é¡¹": 4552,
      "130": 4553,
      "681": 4554,
      "Ġfol": 4555,
      "æł¼å°Ķ": 4556,
      "ili": 4557,
      "stra": 4558,
      "ya": 4559,
      "9999999995": 4560,
      "783": 4561,
      "663": 4562,
      "é¤": 4563,
      "CESSOR": 4564,
      "æ´»": 4565,
      "Ġtask": 4566,
      "Ġinto": 4567,
      "pg": 4568,
      "kernel": 4569,
      "ALL": 4570,
      "0061": 4571,
      "381": 4572,
      "341": 4573,
      "çĵ¦å°Ķ": 4574,
      "æ¬¢": 4575,
      "Kwargs": 4576,
      "utable": 4577,
      "Ġ[-": 4578,
      "0674": 4579,
      "Ġmissing": 4580,
      "Ġparam": 4581,
      "yte": 4582,
      "Ġcondition": 4583,
      "thumbnail": 4584,
      "utton": 4585,
      "231": 4586,
      "antic": 4587,
      "Lists": 4588,
      "391": 4589,
      "peech": 4590,
      "åŁºéĩĳ": 4591,
      "è½¬": 4592,
      "flow": 4593,
      "uni": 4594,
      "quantized": 4595,
      "response": 4596,
      "Attention": 4597,
      "æ±Ŀ": 4598,
      "CMake": 4599,
      "160": 4600,
      "ather": 4601,
      "åĶ®": 4602,
      "lete": 4603,
      "atio": 4604,
      "Ġwork": 4605,
      "èĮ¨åŁº": 4606,
      "lection": 4607,
      "æľį": 4608,
      "holeStage": 4609,
      "holeStageCodegen": 4610,
      "Ġembeddings": 4611,
      "241": 4612,
      "æµĭ": 4613,
      "pper": 4614,
      "å·´å°Ķ": 4615,
      "CMakeLists": 4616,
      "ä»ª": 4617,
      "TEXT": 4618,
      "Ġed": 4619,
      "è§Ĩ": 4620,
      "mean": 4621,
      "èĲ¥": 4622,
      "deos": 4623,
      "641": 4624,
      "Ġact": 4625,
      "485": 4626,
      "duration": 4627,
      "client": 4628,
      "180": 4629,
      "Ġkwargs": 4630,
      "ç¤¾": 4631,
      "Ġvision": 4632,
      "ĠEn": 4633,
      "621": 4634,
      "291": 4635,
      "top": 4636,
      "ä¸ĵ": 4637,
      "Ġsoftware": 4638,
      "dl": 4639,
      "å°ģ": 4640,
      "search": 4641,
      "rol": 4642,
      "ç®Ĺ": 4643,
      "èĥ¶": 4644,
      "åºŀ": 4645,
      "gram": 4646,
      "AA": 4647,
      "sq": 4648,
      "amt": 4649,
      "exec": 4650,
      "671": 4651,
      "å¸ħ": 4652,
      "alle": 4653,
      "tes": 4654,
      "ç´«": 4655,
      "åĿļ": 4656,
      "010": 4657,
      "umber": 4658,
      "å°¼å¥¥": 4659,
      "host": 4660,
      "æĮģ": 4661,
      "å¾ģ": 4662,
      "ifier": 4663,
      "ĠWholeStageCodegen": 4664,
      "Read": 4665,
      "]],": 4666,
      "Ġê": 4667,
      "Right": 4668,
      "untime": 4669,
      "ĠInner": 4670,
      "ĠExpected": 4671,
      "unc": 4672,
      "371": 4673,
      "éĦŃ": 4674,
      "Ġunknown": 4675,
      "tmp": 4676,
      "arm": 4677,
      "Ġinclu": 4678,
      "351": 4679,
      "255": 4680,
      ":.": 4681,
      "pyc": 4682,
      "Ġgroup": 4683,
      "generation": 4684,
      "ModelOutput": 4685,
      "ĠWe": 4686,
      "lement": 4687,
      "ose": 4688,
      "éº»": 4689,
      "Ġpermiss": 4690,
      "dis": 4691,
      "Empty": 4692,
      "ier": 4693,
      "éĢī": 4694,
      "æĿ±": 4695,
      "zeros": 4696,
      "722": 4697,
      "æĥ³": 4698,
      "TTP": 4699,
      "Ġmodels": 4700,
      "Ġ05": 4701,
      "çŀ": 4702,
      "Ġ84": 4703,
      "Field": 4704,
      "Ġreg": 4705,
      "ĠPar": 4706,
      "bab": 4707,
      "ç¾ħ": 4708,
      "ĠWAR": 4709,
      "âĶ": 4710,
      "NTI": 4711,
      "å®«": 4712,
      "Switch": 4713,
      "691": 4714,
      "é¾į": 4715,
      "pattern": 4716,
      "pandas": 4717,
      "CMAKE": 4718,
      "0056": 4719,
      "supported": 4720,
      "åĽ¢": 4721,
      "ped": 4722,
      "0088": 4723,
      "Ġexample": 4724,
      "acci": 4725,
      "scaled": 4726,
      "æŃ¥": 4727,
      "+)": 4728,
      "Ġaten": 4729,
      "house": 4730,
      "å±Ī": 4731,
      "è¶³": 4732,
      "Ġsys": 4733,
      "Ġdat": 4734,
      "æĬķ": 4735,
      "eng": 4736,
      "050": 4737,
      "Ġent": 4738,
      "ĠLA": 4739,
      "decode": 4740,
      "cover": 4741,
      "Result": 4742,
      "select": 4743,
      "rix": 4744,
      "Ġsome": 4745,
      "padding": 4746,
      "ibon": 4747,
      "ences": 4748,
      "é¸£": 4749,
      "__()": 4750,
      "466": 4751,
      "icket": 4752,
      "PY": 4753,
      "Ġdefined": 4754,
      "BE": 4755,
      "Msg": 4756,
      "Ġmake": 4757,
      "ish": 4758,
      "473": 4759,
      "mbed": 4760,
      "usalLM": 4761,
      "Ġ1024": 4762,
      "outine": 4763,
      "ibonacci": 4764,
      "FF": 4765,
      "èĬ¹": 4766,
      "Ġweights": 4767,
      "zz": 4768,
      "Ġ97": 4769,
      "any": 4770,
      "4509": 4771,
      "metri": 4772,
      "Up": 4773,
      "ini": 4774,
      "hether": 4775,
      "scores": 4776,
      "HE": 4777,
      "äº¿": 4778,
      "diction": 4779,
      "Ġfibonacci": 4780,
      "0053": 4781,
      "CT": 4782,
      "495": 4783,
      "compile": 4784,
      "impl": 4785,
      "0054": 4786,
      "443": 4787,
      "Ġremo": 4788,
      "BI": 4789,
      "å¾·å°Ķ": 4790,
      "amed": 4791,
      "00000000005": 4792,
      "ãĥ": 4793,
      "å®ľ": 4794,
      "335728": 4795,
      "Ġobtain": 4796,
      "ä½ł": 4797,
      "æ¨¡": 4798,
      "320": 4799,
      "äºĨ": 4800,
      "é±": 4801,
      "è§Ĵ": 4802,
      "3357282945": 4803,
      "å¤±": 4804,
      "è¡Ĺ": 4805,
      "è£´": 4806,
      "èĲ¬": 4807,
      "address": 4808,
      "æĦŁ": 4809,
      "Null": 4810,
      "è¯ļ": 4811,
      "50000000004": 4812,
      "Ġ106": 4813,
      "Ġnorm": 4814,
      "Ġexist": 4815,
      "240": 4816,
      "rames": 4817,
      "apache": 4818,
      "å½¢": 4819,
      "782": 4820,
      "å¯Ĩ": 4821,
      "ä»¶": 4822,
      "çłĶ": 4823,
      "Ġalso": 4824,
      "ĠGener": 4825,
      "è¾¹": 4826,
      "Ġ87": 4827,
      "éĹ»": 4828,
      "HA": 4829,
      "PU": 4830,
      "090": 4831,
      "çĳŁ": 4832,
      "plan": 4833,
      "req": 4834,
      "bin": 4835,
      "250": 4836,
      "Ġexpress": 4837,
      "020": 4838,
      "221": 4839,
      "Device": 4840,
      "Ġprocess": 4841,
      "190": 4842,
      "472": 4843,
      "åıĸ": 4844,
      "torchscript": 4845,
      "Ġcontin": 4846,
      "è½©": 4847,
      "å¼ķ": 4848,
      "Po": 4849,
      "Ġlibrary": 4850,
      "03224": 4851,
      "çķĮ": 4852,
      "çĢ": 4853,
      "addr": 4854,
      "ĠExample": 4855,
      "åĩł": 4856,
      "parser": 4857,
      "åŃĹ": 4858,
      "ax": 4859,
      "``.": 4860,
      "æĶ¹": 4861,
      "è¡£": 4862,
      "445": 4863,
      "370": 4864,
      "281": 4865,
      "pyright": 4866,
      "elseif": 4867,
      "passes": 4868,
      "mail": 4869,
      "PA": 4870,
      "070": 4871,
      "èĻ¹": 4872,
      "img": 4873,
      "Ġcontext": 4874,
      "ĠWARRA": 4875,
      "ç»Ł": 4876,
      "483": 4877,
      "------------------------": 4878,
      "742": 4879,
      "æł¼æĭī": 4880,
      "ful": 4881,
      "æľĭ": 4882,
      "random": 4883,
      "773": 4884,
      "Ġcpp": 4885,
      "tag": 4886,
      "ĠLe": 4887,
      "enum": 4888,
      "Ġ),": 4889,
      "ĠReused": 4890,
      "080": 4891,
      "seg": 4892,
      "ĠDi": 4893,
      "èĩ³": 4894,
      "æ±Ĥ": 4895,
      "åĨ·": 4896,
      "ible": 4897,
      "èĢ¿": 4898,
      "\"):": 4899,
      "éĺ²": 4900,
      "Ġ192": 4901,
      "ified": 4902,
      "Ġbias": 4903,
      "390": 4904,
      "ĠUnknown": 4905,
      "0312": 4906,
      "768": 4907,
      "Ġfeatures": 4908,
      "ru": 4909,
      "ç«¯": 4910,
      "let": 4911,
      "éª¨": 4912,
      "0052": 4913,
      "eam": 4914,
      "rel": 4915,
      "540": 4916,
      "IND": 4917,
      "viron": 4918,
      "rag": 4919,
      "èįī": 4920,
      "0049": 4921,
      "442": 4922,
      "NotNull": 4923,
      "Ġtrue": 4924,
      "arn": 4925,
      "PROCESSOR": 4926,
      "éĺ®": 4927,
      "030": 4928,
      "Ġtop": 4929,
      "Ġdate": 4930,
      "æľ¯": 4931,
      "çĳ¶": 4932,
      "éĩĮäºļ": 4933,
      "Ġdiffer": 4934,
      "air": 4935,
      "SI": 4936,
      "ĠDef": 4937,
      "home": 4938,
      "Ġfollow": 4939,
      "flat": 4940,
      "åŁĥå°Ķ": 4941,
      "ä½İ": 4942,
      "792": 4943,
      "URL": 4944,
      "hn": 4945,
      "570": 4946,
      "ating": 4947,
      "``,": 4948,
      "vis": 4949,
      "0059": 4950,
      "éĿĸ": 4951,
      "ular": 4952,
      "å²¡": 4953,
      "way": 4954,
      "kv": 4955,
      "1552": 4956,
      "BC": 4957,
      "subdirectory": 4958,
      "rop": 4959,
      "æŁ±": 4960,
      "oy": 4961,
      "Li": 4962,
      "Ġoff": 4963,
      "0047": 4964,
      "player": 4965,
      "memory": 4966,
      "ĠDe": 4967,
      "æİ¥": 4968,
      "limate": 4969,
      "æĸĲ": 4970,
      "ĠServer": 4971,
      "0064": 4972,
      "775": 4973,
      "logger": 4974,
      "çĦķ": 4975,
      "ade": 4976,
      "Ġ<=": 4977,
      "gb": 4978,
      "Ġread": 4979,
      "Ġ94": 4980,
      "vg": 4981,
      "\"])": 4982,
      "ĠSort": 4983,
      "</": 4984,
      "661": 4985,
      "éĶ¡": 4986,
      "Ġpytest": 4987,
      "æĸ¯ç§ĳ": 4988,
      "580": 4989,
      "convert": 4990,
      "Cor": 4991,
      "å¤Ħ": 4992,
      "Ġ86": 4993,
      "Ġ63": 4994,
      "replace": 4995,
      "rate": 4996,
      "å¨ħ": 4997,
      "èĲ½": 4998,
      "è¿ĳ": 4999,
      "Bit": 5000,
      "26162": 5001,
      "åĨ²": 5002,
      "ampling": 5003,
      "\"))": 5004,
      "745": 5005,
      "ticket": 5006,
      "âĸĪ": 5007,
      "bolic": 5008,
      ">`": 5009,
      "NTIES": 5010,
      "å¸«": 5011,
      "Ġ89": 5012,
      "Ġhelp": 5013,
      "ä»ķ": 5014,
      "abb": 5015,
      "463": 5016,
      "Ġyutil": 5017,
      "aaaa": 5018,
      "åħĭæĭī": 5019,
      "sz": 5020,
      "640": 5021,
      "conf": 5022,
      "æĸ¯èĴĤ": 5023,
      "å¸Ń": 5024,
      "global": 5025,
      "Ġ[[": 5026,
      "sizes": 5027,
      "590": 5028,
      "Ġ01": 5029,
      "åĽĬ": 5030,
      "550": 5031,
      "Ġuser": 5032,
      "sign": 5033,
      "å°¾": 5034,
      "Ġcls": 5035,
      "ĠWARRANTIES": 5036,
      "uploader": 5037,
      "rations": 5038,
      "530": 5039,
      "èĤ¯": 5040,
      "cond": 5041,
      "masked": 5042,
      "CUDA": 5043,
      "261": 5044,
      "ĠBroadcastExchange": 5045,
      "Ġblock": 5046,
      "2616203224": 5047,
      "èĩ´": 5048,
      "Ġwriting": 5049,
      "Ġafter": 5050,
      "ilters": 5051,
      "aut": 5052,
      "Ġim": 5053,
      "Gu": 5054,
      "èŀ": 5055,
      "ä»Ģä¹Ī": 5056,
      "Ġitem": 5057,
      "éħĴ": 5058,
      "772": 5059,
      "transpose": 5060,
      "NSE": 5061,
      "ä¹Ł": 5062,
      "Unscaled": 5063,
      "å´İ": 5064,
      "UnscaledValue": 5065,
      "'],": 5066,
      "ðŁļ¨ðŁļ¨ðŁļ¨ðŁļ¨ðŁļ¨ðŁļ¨ðŁļ¨ðŁļ¨ðŁļ¨ðŁļ¨ðŁļ¨ðŁļ¨ðŁļ¨ðŁļ¨ðŁļ¨ðŁļ¨": 5067,
      "enabled": 5068,
      "æ¯ķ": 5069,
      "ols": 5070,
      "1017": 5071,
      "wo": 5072,
      "å¿«": 5073,
      "fefefefe": 5074,
      "(*": 5075,
      "0057": 5076,
      "ery": 5077,
      "éĢł": 5078,
      "ç¿Ł": 5079,
      "6728": 5080,
      "743": 5081,
      "Core": 5082,
      "admin": 5083,
      "å¤§åŃ¦": 5084,
      "éĢ¸": 5085,
      "empty": 5086,
      "èģĤ": 5087,
      "Ġreturns": 5088,
      "ĠSe": 5089,
      "560": 5090,
      "360": 5091,
      "symbolic": 5092,
      "ä¸Ģä¸ª": 5093,
      "è¯ģ": 5094,
      "Str": 5095,
      "çľģ": 5096,
      "1114": 5097,
      "å¾·æĭī": 5098,
      "heck": 5099,
      "çİĩ": 5100,
      "éŁ¦å°Ķ": 5101,
      "andom": 5102,
      "possibly": 5103,
      "masks": 5104,
      "her": 5105,
      "precated": 5106,
      "Ġnext": 5107,
      "040": 5108,
      "older": 5109,
      "498": 5110,
      "965": 5111,
      "çŃī": 5112,
      "ivation": 5113,
      "licens": 5114,
      "0078": 5115,
      "Ġcd": 5116,
      "_(": 5117,
      "OC": 5118,
      "ĠĠĠĠĠĠĠĠĠĠĠĠĠĠĠĠĠ": 5119,
      "478": 5120,
      "NE": 5121,
      "has": 5122,
      "Net": 5123,
      "Ġboxes": 5124,
      "greed": 5125,
      ".{": 5126,
      "And": 5127,
      "Ġ65": 5128,
      "color": 5129,
      "âĸģ": 5130,
      "çĺ": 5131,
      "æĻĭ": 5132,
      "åºľ": 5133,
      "pop": 5134,
      "DK": 5135,
      "0068": 5136,
      "âĸĪâĸĪ": 5137,
      "Ġformats": 5138,
      "458": 5139,
      "Ġavailable": 5140,
      "encode": 5141,
      "270": 5142,
      "uous": 5143,
      "message": 5144,
      "Ġ72": 5145,
      "Ġser": 5146,
      "Ġprepare": 5147,
      "Ġ\"__": 5148,
      "azure": 5149,
      "cff": 5150,
      "Ġbu": 5151,
      "æĻ´": 5152,
      "ĠLET": 5153,
      "Ġsupport": 5154,
      "ĠLETTER": 5155,
      "Ġbet": 5156,
      "å§Ķ": 5157,
      "ĠBo": 5158,
      "Function": 5159,
      "é¬": 5160,
      "hf": 5161,
      "è¾°": 5162,
      "ĠApache": 5163,
      "Ġpermissions": 5164,
      "çĳľ": 5165,
      "Ġthan": 5166,
      "Ġlong": 5167,
      "é¢Ĩ": 5168,
      "exception": 5169,
      "465": 5170,
      "Ġmessage": 5171,
      "éĩĭ": 5172,
      "9999999994": 5173,
      "Ġext": 5174,
      "Ġfinal": 5175,
      "ynamic": 5176,
      "ession": 5177,
      "ĠAll": 5178,
      "763": 5179,
      "ĠLinux": 5180,
      "licenses": 5181,
      "CENSE": 5182,
      "å®¢": 5183,
      "è¿İ": 5184,
      "ĠVersion": 5185,
      "inv": 5186,
      "arse": 5187,
      "vic": 5188,
      "AMD": 5189,
      "BIN": 5190,
      "graph": 5191,
      "MDi": 5192,
      "Ġbound": 5193,
      "471": 5194,
      "warehouse": 5195,
      "elative": 5196,
      "variant": 5197,
      "1102": 5198,
      "bit": 5199,
      "abe": 5200,
      "ç½Ĺå¨ĥ": 5201,
      "Ġapplicable": 5202,
      "ĠRow": 5203,
      "Ġlaw": 5204,
      "Ġ`__": 5205,
      "formats": 5206,
      "uint": 5207,
      "æ©ĭ": 5208,
      "PreTrainedModel": 5209,
      "äºļåĬª": 5210,
      "parameters": 5211,
      "é±¼": 5212,
      "({": 5213,
      "401": 5214,
      "Ġcolumn": 5215,
      "çİĦ": 5216,
      "Ġimplied": 5217,
      "CI": 5218,
      "ensions": 5219,
      "mbda": 5220,
      "Ġapply": 5221,
      "ndarray": 5222,
      "Ġ```": 5223,
      "arge": 5224,
      "ava": 5225,
      "æĪı": 5226,
      "é¢ĺ": 5227,
      "nect": 5228,
      "å¨¥": 5229,
      "zip": 5230,
      "ĠCopyright": 5231,
      "level": 5232,
      "ĠTO": 5233,
      "çīĪ": 5234,
      "469": 5235,
      "985": 5236,
      "çķ¥": 5237,
      "Array": 5238,
      "Ġ\"ðŁ": 5239,
      "Ġhand": 5240,
      "deb": 5241,
      "Ġ>=": 5242,
      "åı·": 5243,
      "emory": 5244,
      "Sha": 5245,
      "ä»ĭ": 5246,
      "æĿ¡": 5247,
      "License": 5248,
      "éºŁ": 5249,
      "æĩī": 5250,
      "637": 5251,
      "åĳ½": 5252,
      "ever": 5253,
      "åħ±": 5254,
      "Ġatt": 5255,
      "é¡¿": 5256,
      "624": 5257,
      "0099": 5258,
      "inf": 5259,
      "emma": 5260,
      "mbedding": 5261,
      "ç«Ļ": 5262,
      "æŁ´": 5263,
      ":-": 5264,
      "ĠUnpack": 5265,
      "çĦ¡": 5266,
      "æĤ¦": 5267,
      "Ġ['": 5268,
      "lines": 5269,
      "env": 5270,
      "åĮĹäº¬": 5271,
      "Sequence": 5272,
      "340": 5273,
      "Face": 5274,
      "Ġserver": 5275,
      "3079": 5276,
      "æĻĤ": 5277,
      "è´ŀ": 5278,
      "bar": 5279,
      "cent": 5280,
      "Ġ75": 5281,
      "ĠPre": 5282,
      "ube": 5283,
      "230": 5284,
      "990": 5285,
      "ĠWITHOUT": 5286,
      "060": 5287,
      "éľĸ": 5288,
      "0077": 5289,
      "ä¼¤": 5290,
      "ĠLo": 5291,
      "ĠĠĠĠĠĠĠĠĠĠĠĠĠĠĠĠĠĠĠĠĠĠĠĠĠĠĠĠĠĠĠ": 5292,
      "åľĨ": 5293,
      "ĠRelative": 5294,
      "412": 5295,
      "ĠIt": 5296,
      "432": 5297,
      "After": 5298,
      "This": 5299,
      "lot": 5300,
      "CausalLM": 5301,
      "ings": 5302,
      "ocket": 5303,
      "Ġarguments": 5304,
      "983": 5305,
      "cause": 5306,
      "ĠKIND": 5307,
      "330": 5308,
      "ç¾½": 5309,
      "æĬĺ": 5310,
      "982": 5311,
      "send": 5312,
      "alled": 5313,
      "quires": 5314,
      "schema": 5315,
      "aba": 5316,
      "LICENSE": 5317,
      "ĠQi": 5318,
      "652": 5319,
      "620": 5320,
      "99999999995": 5321,
      "ĠBest": 5322,
      "XP": 5323,
      "ĠRate": 5324,
      "æĬĢ": 5325,
      "ody": 5326,
      "Py": 5327,
      "402": 5328,
      "native": 5329,
      "ctory": 5330,
      "ĠCONDI": 5331,
      "Ġdown": 5332,
      "0067": 5333,
      "793": 5334,
      "âĹĮÖ": 5335,
      "1024": 5336,
      "æŃĮ": 5337,
      "èı¯": 5338,
      "0118": 5339,
      "ä¾Ĩ": 5340,
      "arrays": 5341,
      "æŀĿ": 5342,
      "ĠLuo": 5343,
      "hub": 5344,
      "mar": 5345,
      "Ġcompli": 5346,
      "Ġinstance": 5347,
      "å½ķ": 5348,
      "781": 5349,
      "afa": 5350,
      "ç»ĦåĽ¾": 5351,
      "1106": 5352,
      "è´¨": 5353,
      "èľ": 5354,
      "Ġopen": 5355,
      "ĠCONDITIONS": 5356,
      "aded": 5357,
      "dff": 5358,
      "èĸĩ": 5359,
      "æ¶Ĥ": 5360,
      "ĠReusedExchange": 5361,
      "æ¹ĺ": 5362,
      "éĽ²": 5363,
      "Ġgover": 5364,
      "èİİ": 5365,
      "1104": 5366,
      ".*": 5367,
      "requirements": 5368,
      "ismatch": 5369,
      "itial": 5370,
      "0102": 5371,
      "setting": 5372,
      "}),": 5373,
      "EF": 5374,
      "sets": 5375,
      "intermediate": 5376,
      "èıľ": 5377,
      "ĠAvg": 5378,
      "Ġ70": 5379,
      "416": 5380,
      "track": 5381,
      "414": 5382,
      "ç§ĳå°Ķ": 5383,
      "428": 5384,
      "çº¯": 5385,
      "ĠVM": 5386,
      "Cont": 5387,
      "LTS": 5388,
      "æ´¾": 5389,
      "FI": 5390,
      "äºŃ": 5391,
      "Ġagreed": 5392,
      "453": 5393,
      "ĠUnless": 5394,
      "éģĶ": 5395,
      "JDK": 5396,
      "Literal": 5397,
      "OpenJDK": 5398,
      "ĠStdev": 5399,
      "ctx": 5400,
      "Ġclo": 5401,
      "Ġchunk": 5402,
      "bcb": 5403,
      "videos": 5404,
      "åħĭå°Ķ": 5405,
      "454": 5406,
      "tolist": 5407,
      "fac": 5408,
      "åħļ": 5409,
      "192627": 5410,
      "æĭľ": 5411,
      "Ġ768": 5412,
      "var": 5413,
      "Ġwebpage": 5414,
      "0106": 5415,
      "290": 5416,
      "æ¡Ī": 5417,
      "1424": 5418,
      "0079": 5419,
      "Ġnon": 5420,
      "424": 5421,
      "Ġ0062": 5422,
      "ĠHugging": 5423,
      "è±¡": 5424,
      "427": 5425,
      "round": 5426,
      "afb": 5427,
      "765": 5428,
      "0104": 5429,
      "æ¶Ī": 5430,
      "experts": 5431,
      "403": 5432,
      "1926274509": 5433,
      "Info": 5434,
      "\");": 5435,
      "é£Ł": 5436,
      "406": 5437,
      "632": 5438,
      "Ġiter": 5439,
      "live": 5440,
      "MS": 5441,
      "0069": 5442,
      "ASIS": 5443,
      "0098": 5444,
      "extractor": 5445,
      "ffffffffffffffffffffffffffffffff": 5446,
      "aeb": 5447,
      "417": 5448,
      "é¢Ħ": 5449,
      "å©ī": 5450,
      "side": 5451,
      "Ġskip": 5452,
      "reason": 5453,
      "Ġcom": 5454,
      "çł´": 5455,
      "ek": 5456,
      "Ġcontent": 5457,
      "468": 5458,
      "1107": 5459,
      "iler": 5460,
      "TO": 5461,
      "Ġcompliance": 5462,
      "670": 5463,
      "äºī": 5464,
      "æĺĤ": 5465,
      "ĠBASIS": 5466,
      "ĠSM": 5467,
      "0144": 5468,
      "ç¨ĭåºı": 5469,
      "418": 5470,
      "ĠPath": 5471,
      "win": 5472,
      "457": 5473,
      "[^": 5474,
      "Ġspecial": 5475,
      "Ġ73": 5476,
      "Ġ83": 5477,
      "å¸¦": 5478,
      "æ²¢": 5479,
      "Ġlimitations": 5480,
      "ween": 5481,
      "çľĭ": 5482,
      "éĪ": 5483,
      "Ġinfo": 5484,
      "cef": 5485,
      "999999999999": 5486,
      "Decoder": 5487,
      "Ġprivate": 5488,
      "Ġstream": 5489,
      "ĠLicensed": 5490,
      "491": 5491,
      "ç»Ń": 5492,
      "erved": 5493,
      "Ġcontinue": 5494,
      "åĳĬ": 5495,
      "æ¼Ķ": 5496,
      "Ġgoverning": 5497,
      "è°Ī": 5498,
      "dep": 5499,
      "æ¶µ": 5500,
      "åħ¬åı¸": 5501,
      "mapping": 5502,
      "abase": 5503,
      "1986": 5504,
      "ddb": 5505,
      "DataAfter": 5506,
      "eforeCtr": 5507,
      "DataByte": 5508,
      "DataBeforeCtr": 5509,
      "FixedInputData": 5510,
      "FixedInputDataByte": 5511,
      "DataAfterCtr": 5512,
      "FixedInputDataByteLen": 5513,
      "407": 5514,
      "matching": 5515,
      "413": 5516,
      "452": 5517,
      "409": 5518,
      "Ġdec": 5519,
      "456": 5520,
      "()``": 5521,
      "Ġlogger": 5522,
      "bdb": 5523,
      "edia": 5524,
      "å¡ŀå°Ķ": 5525,
      "0114": 5526,
      "lama": 5527,
      "ors": 5528,
      "cee": 5529,
      "Ġstruct": 5530,
      "/{": 5531,
      "åįľ": 5532,
      "port": 5533,
      "0109": 5534,
      "å®®": 5535,
      "1112": 5536,
      "çİĽ": 5537,
      "Ġtri": 5538,
      "blocks": 5539,
      "Ġwhere": 5540,
      "Ġids": 5541,
      "è´§": 5542,
      "975": 5543,
      "èį¯ä¸ļ": 5544,
      "1108": 5545,
      "Ġseg": 5546,
      "Ġignore": 5547,
      "åħĭæĸ¯": 5548,
      "ĠMo": 5549,
      "771": 5550,
      "æ¡ĥ": 5551,
      "EE": 5552,
      "åİļ": 5553,
      "frame": 5554,
      "è®°": 5555,
      "node": 5556,
      "åĹ": 5557,
      "438": 5558,
      "æģ¯": 5559,
      "dea": 5560,
      "èĲ¨å°Ķ": 5561,
      "bff": 5562,
      "izers": 5563,
      "Ġ196": 5564,
      "Ġclient": 5565,
      "åĬ¿": 5566,
      "å¿ħ": 5567,
      "fed": 5568,
      "err": 5569,
      "0117": 5570,
      "464": 5571,
      "fbb": 5572,
      "filter": 5573,
      "pytest": 5574,
      "èĳī": 5575,
      "Ġassigned": 5576,
      "PT": 5577,
      "æ¨¹": 5578,
      "éĬ": 5579,
      "467": 5580,
      "437": 5581,
      "ãĤ": 5582,
      "INT": 5583,
      "eeb": 5584,
      "Ġbefore": 5585,
      "è¤": 5586,
      "0036": 5587,
      "QL": 5588,
      "hand": 5589,
      "220": 5590,
      "Ġoption": 5591,
      "è®®": 5592,
      "åĭĿ": 5593,
      ".\")": 5594,
      "0005": 5595,
      "serial": 5596,
      "æ³¨å°Ħ": 5597,
      "845": 5598,
      "æĹı": 5599,
      "lan": 5600,
      "Val": 5601,
      "806": 5602,
      "cdb": 5603,
      "dcb": 5604,
      "atter": 5605,
      "linear": 5606,
      "stack": 5607,
      "aaa": 5608,
      "690": 5609,
      "350": 5610,
      "0046": 5611,
      "è®º": 5612,
      "Ġwithout": 5613,
      "uture": 5614,
      ")))": 5615,
      "ODE": 5616,
      "0108": 5617,
      "cho": 5618,
      "åħ¸": 5619,
      "Ġgeneration": 5620,
      "Ġnow": 5621,
      "680": 5622,
      "ĠProcessor": 5623,
      "bee": 5624,
      "421": 5625,
      "prod": 5626,
      "ĠHuggingFace": 5627,
      "857": 5628,
      "èķ¾": 5629,
      "Ġheaders": 5630,
      "Extractor": 5631,
      "757": 5632,
      "ox": 5633,
      "çĴĲ": 5634,
      "fcb": 5635,
      "illa": 5636,
      "afc": 5637,
      "èİ·": 5638,
      "è¯Ħ": 5639,
      "è¯´": 5640,
      "Ġrandom": 5641,
      "bert": 5642,
      "481": 5643,
      "260": 5644,
      "Ġ{'": 5645,
      "Ġoptional": 5646,
      "direct": 5647,
      "ä¼ĺ": 5648,
      "kov": 5649,
      "ino": 5650,
      "441": 5651,
      "380": 5652,
      "1280889": 5653,
      "1280889297": 5654,
      "205": 5655,
      "408": 5656,
      "Ġ107": 5657,
      "0116": 5658,
      "aca": 5659,
      "æİĴ": 5660,
      "å¿µ": 5661,
      "865": 5662,
      "itle": 5663,
      "moy": 5664,
      "API": 5665,
      "0124": 5666,
      "dee": 5667,
      "ML": 5668,
      "abd": 5669,
      "ceb": 5670,
      "ĠĠĠĠĠĠĠĠĠĠĠĠĠĠĠĠĠĠĠĠĠĠĠĠĠĠĠĠĠĠĠĠĠĠĠ": 5671,
      "çĿĢ": 5672,
      "acf": 5673,
      "æĺĨ": 5674,
      "ĠSte": 5675,
      "IRST": 5676,
      "Ġ],": 5677,
      "1109": 5678,
      "playlist": 5679,
      "acd": 5680,
      "480": 5681,
      "ĠImage": 5682,
      "0107": 5683,
      "adb": 5684,
      "reshape": 5685,
      "419": 5686,
      "æ´Ľå¨ĥ": 5687,
      "slice": 5688,
      "isted": 5689,
      "Ġmismatch": 5690,
      "ĠSMALL": 5691,
      "gi": 5692,
      "305": 5693,
      "Ġnormal": 5694,
      "477": 5695,
      "prompt": 5696,
      "åĩ»": 5697,
      "fdb": 5698,
      "Ġframe": 5699,
      "Ġsetting": 5700,
      "lor": 5701,
      "ä½ı": 5702,
      "book": 5703,
      "afd": 5704,
      "æĨ": 5705,
      "acb": 5706,
      "éĴ¢": 5707,
      "cry": 5708,
      "cfe": 5709,
      "allable": 5710,
      "expression": 5711,
      "Batch": 5712,
      "åĪĽ": 5713,
      "Ġdis": 5714,
      "cfb": 5715,
      "ç§į": 5716,
      "Loc": 5717,
      "WithP": 5718,
      "éŀ": 5719,
      "459": 5720,
      "439": 5721,
      "å¯Ĵ": 5722,
      "Case": 5723,
      "0089": 5724,
      "resolution": 5725,
      "0218": 5726,
      "tral": 5727,
      "--------------------------------------------------------": 5728,
      "BB": 5729,
      "beb": 5730,
      "gu": 5731,
      "js": 5732,
      "Ġ85": 5733,
      "transformers": 5734,
      "Schema": 5735,
      "Ġ71": 5736,
      "swith": 5737,
      "Classification": 5738,
      "'re": 5739,
      "Ġ82": 5740,
      "ä¹ł": 5741,
      "tocol": 5742,
      "ipeline": 5743,
      "short": 5744,
      "eature": 5745,
      "\"].": 5746,
      "å¦į": 5747,
      "0112": 5748,
      "0033": 5749,
      "?://": 5750,
      "éĻħ": 5751,
      "Ge": 5752,
      "aed": 5753,
      "del": 5754,
      "Ġ90": 5755,
      "Ġparser": 5756,
      "titles": 5757,
      "full": 5758,
      "æķ´": 5759,
      "Generation": 5760,
      "Ġar": 5761,
      "UN": 5762,
      "wrap": 5763,
      "741": 5764,
      "inference": 5765,
      "Ġrights": 5766,
      "0148": 5767,
      "ĠTest": 5768,
      "æ¬¾": 5769,
      "erge": 5770,
      "utor": 5771,
      "adf": 5772,
      "high": 5773,
      "892": 5774,
      "ç¬¦": 5775,
      "ys": 5776,
      "Ġlogging": 5777,
      "Ġbetween": 5778,
      "Ġsign": 5779,
      "ãĢģ": 5780,
      "Ġfollowing": 5781,
      "0026": 5782,
      "Ġjson": 5783,
      "total": 5784,
      "873": 5785,
      "meth": 5786,
      "abf": 5787,
      "éĻ½": 5788,
      "LIP": 5789,
      "bfb": 5790,
      "cea": 5791,
      "å²ģ": 5792,
      "refs": 5793,
      "gress": 5794,
      "0157": 5795,
      "sparse": 5796,
      "Ġrow": 5797,
      "pped": 5798,
      "eft": 5799,
      "Bu": 5800,
      "æ§": 5801,
      "ä¸Ŀ": 5802,
      "cec": 5803,
      "resize": 5804,
      "å®ª": 5805,
      "ison": 5806,
      "æµ¦": 5807,
      "0128": 5808,
      "ç¦»": 5809,
      "ARY": 5810,
      "Encoder": 5811,
      "949": 5812,
      "ĠLu": 5813,
      "Ġpython": 5814,
      "uted": 5815,
      "mlp": 5816,
      "peration": 5817,
      "åĮ»": 5818,
      "ones": 5819,
      "0113": 5820,
      "AF": 5821,
      "0062": 5822,
      "ĠCa": 5823,
      "imum": 5824,
      "unsqueeze": 5825,
      "profit": 5826,
      "](": 5827,
      "cessed": 5828,
      "Embedding": 5829,
      "429": 5830,
      "El": 5831,
      "MENT": 5832,
      "0127": 5833,
      "uri": 5834,
      "ender": 5835,
      "Ġrel": 5836,
      "å·²": 5837,
      "280": 5838,
      "0158": 5839,
      "Ġgiv": 5840,
      "Ġgetattr": 5841,
      "cae": 5842,
      "99999999994": 5843,
      "ĠNUL": 5844,
      "Ġpoint": 5845,
      "bed": 5846,
      "èħ¾": 5847,
      "Ġ81": 5848,
      "6238": 5849,
      "ç»´å°Ķ": 5850,
      "ration": 5851,
      "883": 5852,
      "Ġannot": 5853,
      "Push": 5854,
      "åıĬ": 5855,
      "Ġ144": 5856,
      "Ġtraining": 5857,
      "å®¤": 5858,
      "latform": 5859,
      "667": 5860,
      "distribut": 5861,
      "efe": 5862,
      "ench": 5863,
      "åºķ": 5864,
      "885": 5865,
      "eta": 5866,
      "hen": 5867,
      "738": 5868,
      "Ġtests": 5869,
      "å²Ľ": 5870,
      "Object": 5871,
      "aclass": 5872,
      "791": 5873,
      "äº²": 5874,
      "èĲ§": 5875,
      "724": 5876,
      "URE": 5877,
      "gex": 5878,
      "essages": 5879,
      "0154": 5880,
      "882": 5881,
      "Ġ95": 5882,
      "soft": 5883,
      "627": 5884,
      "9453": 5885,
      "0134": 5886,
      "ases": 5887,
      "0337": 5888,
      "example": 5889,
      "0234": 5890,
      "backends": 5891,
      "ecc": 5892,
      "973": 5893,
      "è¾¾å°Ķ": 5894,
      "Ġdifferent": 5895,
      "ECTED": 5896,
      "ç±»": 5897,
      "next": 5898,
      "893": 5899,
      "isode": 5900,
      "Ġcos": 5901,
      "Ġtraverse": 5902,
      "707": 5903,
      "875": 5904,
      "981": 5905,
      "756": 5906,
      "quences": 5907,
      "`:": 5908,
      "åİĭ": 5909,
      "Ġ[`": 5910,
      "ä¹¾": 5911,
      "HEN": 5912,
      "dfe": 5913,
      "assed": 5914,
      "å¯¼": 5915,
      "0119": 5916,
      "bug": 5917,
      "LU": 5918,
      "614": 5919,
      "978": 5920,
      "0000000005": 5921,
      "660": 5922,
      "0168": 5923,
      "æĸĻ": 5924,
      "former": 5925,
      "umentType": 5926,
      "945": 5927,
      "dfb": 5928,
      "rgumentType": 5929,
      "reportArgumentType": 5930,
      "jpg": 5931,
      "761": 5932,
      "ç®Ģ": 5933,
      "ĠURL": 5934,
      "><": 5935,
      "606": 5936,
      "ĠHAVE": 5937,
      "0156": 5938,
      "agg": 5939,
      "OG": 5940,
      "aef": 5941,
      "ordinator": 5942,
      "617": 5943,
      "flag": 5944,
      "åħĭéĩĮ": 5945,
      "è®©": 5946,
      "607": 5947,
      "ested": 5948,
      "configuration": 5949,
      "0074": 5950,
      "æĸĹ": 5951,
      "Ġ92": 5952,
      "cy": 5953,
      "ãģ": 5954,
      "Ġresults": 5955,
      "orage": 5956,
      "âĶĢ": 5957,
      "ĠNULLS": 5958,
      "ĠOptional": 5959,
      "067464": 5960,
      "hu": 5961,
      "adc": 5962,
      "ĠTo": 5963,
      "éĻį": 5964,
      "æĹ©": 5965,
      "æºª": 5966,
      "bfe": 5967,
      "èĤī": 5968,
      "SensorEntity": 5969,
      "------------------------------------------------------------------------------------------------------------------------": 5970,
      "VER": 5971,
      "bytes": 5972,
      "0152": 5973,
      "loop": 5974,
      "0674643079": 5975,
      "çĽĪ": 5976,
      "æ¯į": 5977,
      "èĹı": 5978,
      "0304": 5979,
      "714": 5980,
      "819": 5981,
      "iguous": 5982,
      "cur": 5983,
      "PYC": 5984,
      "çī¹éĩĮ": 5985,
      "itional": 5986,
      "654": 5987,
      "863": 5988,
      "ForCausalLM": 5989,
      "ratio": 5990,
      "ection": 5991,
      "Ġresol": 5992,
      "è±Ĩ": 5993,
      "813": 5994,
      "\").": 5995,
      "ĠGe": 5996,
      "(_": 5997,
      "864": 5998,
      "602": 5999,
      "718": 6000,
      "Ġ1000": 6001,
      "Ġdet": 6002,
      "dcc": 6003,
      "Ġyield": 6004,
      "========================": 6005,
      "br": 6006,
      "00000000006": 6007,
      "å½ª": 6008,
      "ven": 6009,
      "bcc": 6010,
      "ries": 6011,
      "æĸ¯æ³°": 6012,
      "æĸ¯åĿ¦": 6013,
      "653": 6014,
      "aec": 6015,
      "positions": 6016,
      "727": 6017,
      "Frame": 6018,
      "çļĩ": 6019,
      "657": 6020,
      "Ġ:-": 6021,
      "çī¹æĭī": 6022,
      "Ġorder": 6023,
      "Ġreturned": 6024,
      "buffer": 6025,
      "çģ¿": 6026,
      "Python": 6027,
      "603": 6028,
      "Mode": 6029,
      "nh": 6030,
      "656": 6031,
      "fcc": 6032,
      "ĠRo": 6033,
      "Car": 6034,
      "äº¨": 6035,
      "expand": 6036,
      "çĨĻ": 6037,
      "sv": 6038,
      "658": 6039,
      "sing": 6040,
      "638": 6041,
      "Ġ160": 6042,
      "ĠEPYC": 6043,
      "664": 6044,
      "Mult": 6045,
      "fp": 6046,
      "0208": 6047,
      "Sub": 6048,
      "erry": 6049,
      "åıĤ": 6050,
      "ices": 6051,
      "634": 6052,
      "Ġ93": 6053,
      "å¦Ļ": 6054,
      "0204": 6055,
      "843": 6056,
      "AI": 6057,
      "æ¸¡": 6058,
      "æĿĢ": 6059,
      "pair": 6060,
      "èŃ¦": 6061,
      "713": 6062,
      "å¸ĥå°Ķ": 6063,
      "å¸ĥéĩĮ": 6064,
      "éģŃ": 6065,
      "TestCase": 6066,
      "Channel": 6067,
      "çİ®": 6068,
      "ffe": 6069,
      "461": 6070,
      "0164": 6071,
      "GET": 6072,
      "Ġmode": 6073,
      "628": 6074,
      "704": 6075,
      "éĥģ": 6076,
      "è´Ń": 6077,
      "0000000000000000000000000000000000000000000000000000000000000000": 6078,
      "616": 6079,
      "828": 6080,
      "freq": 6081,
      "3436": 6082,
      "...,": 6083,
      "799": 6084,
      "Ġ02": 6085,
      "å¤ĩ": 6086,
      "rectly": 6087,
      "706": 6088,
      "fast": 6089,
      "Ġtyping": 6090,
      "ails": 6091,
      "build": 6092,
      "è¯Ŀ": 6093,
      "PP": 6094,
      "858": 6095,
      "Ra": 6096,
      "celer": 6097,
      "Ġ:,": 6098,
      "implementation": 6099,
      "669": 6100,
      "uk": 6101,
      "215": 6102,
      "ti": 6103,
      "Man": 6104,
      "uggingface": 6105,
      "cope": 6106,
      "backbone": 6107,
      "6818": 6108,
      "1101": 6109,
      "ines": 6110,
      "ĠNOT": 6111,
      "844": 6112,
      "raw": 6113,
      "æ¯Ĵ": 6114,
      "okie": 6115,
      "uter": 6116,
      "895": 6117,
      "è®¾": 6118,
      "Column": 6119,
      "699": 6120,
      "jit": 6121,
      "944": 6122,
      "tree": 6123,
      "çĬ¶": 6124,
      "fs": 6125,
      "Number": 6126,
      "å¸Ŀ": 6127,
      "ç½Ĺå¤«": 6128,
      "Ġu": 6129,
      "798": 6130,
      "Ġsingle": 6131,
      "éĢŁ": 6132,
      "è¸": 6133,
      "Ġexception": 6134,
      "752": 6135,
      "Filters": 6136,
      "668": 6137,
      "778": 6138,
      "Bert": 6139,
      "Ġcase": 6140,
      "0023": 6141,
      "Ġ102": 6142,
      "caa": 6143,
      "cores": 6144,
      "Ġreserved": 6145,
      "twisted": 6146,
      "0149": 6147,
      "åį¡æĭī": 6148,
      "Int": 6149,
      "609": 6150,
      "Coroutine": 6151,
      "BD": 6152,
      "eep": 6153,
      "commit": 6154,
      "0042": 6155,
      "0132": 6156,
      "daa": 6157,
      "ĠStep": 6158,
      "iny": 6159,
      "Ġbackend": 6160,
      "852": 6161,
      "ugh": 6162,
      "scord": 6163,
      "0129": 6164,
      "ĠPri": 6165,
      "Ġintermediate": 6166,
      "753": 6167,
      "754": 6168,
      "868": 6169,
      "å¼Ĥ": 6170,
      "ities": 6171,
      "XPECTED": 6172,
      "ĠFIRST": 6173,
      "å¥¥å°Ķ": 6174,
      "0137": 6175,
      "arison": 6176,
      "ä¸¸": 6177,
      "æĻĸ": 6178,
      "744": 6179,
      "ential": 6180,
      "Ġencoded": 6181,
      "atial": 6182,
      "Ġ224": 6183,
      "Comp": 6184,
      "èĥ¶åĽĬ": 6185,
      "728": 6186,
      "ĠData": 6187,
      "counter": 6188,
      "717": 6189,
      "Ġmultiple": 6190,
      "832": 6191,
      "eef": 6192,
      "project": 6193,
      "ĠSub": 6194,
      "uya": 6195,
      "çĭ¬": 6196,
      "867": 6197,
      "ĠĠĠĠĠĠĠĠĠĠĠĠĠĠĠĠĠĠĠĠĠĠĠĠĠ": 6198,
      "ĠASC": 6199,
      "math": 6200,
      "warning": 6201,
      "760": 6202,
      "737": 6203,
      "dfc": 6204,
      "complex": 6205,
      "703": 6206,
      "alloc": 6207,
      "æķĪ": 6208,
      "629": 6209,
      "Ġ91": 6210,
      "èģĮ": 6211,
      "708": 6212,
      "æ¶¨": 6213,
      "608": 6214,
      "bef": 6215,
      "å°±": 6216,
      "BF": 6217,
      "Ġ104": 6218,
      "613": 6219,
      "618": 6220,
      "zone": 6221,
      "872": 6222,
      "åĢ¼": 6223,
      "variables": 6224,
      "Ġisnotnull": 6225,
      "Ġpassed": 6226,
      "Ġdynamic": 6227,
      "809": 6228,
      "char": 6229,
      "KEY": 6230,
      "éĶĢ": 6231,
      "612": 6232,
      "853": 6233,
      "gel": 6234,
      "allel": 6235,
      "898": 6236,
      "lected": 6237,
      "Ġopt": 6238,
      "bec": 6239,
      "Ġ[{": 6240,
      "ä¹ĥ": 6241,
      ")#": 6242,
      "818": 6243,
      "Feature": 6244,
      "atten": 6245,
      "972": 6246,
      "Ġhash": 6247,
      "Ġstyle": 6248,
      "Ġ,": 6249,
      "470": 6250,
      "reak": 6251,
      "963": 6252,
      "ublic": 6253,
      "TIN": 6254,
      "AN": 6255,
      "Ba": 6256,
      "Event": 6257,
      "ç¾İåĽ½": 6258,
      "804": 6259,
      "ç±³å°Ķ": 6260,
      "Log": 6261,
      "0224": 6262,
      "Ġmasks": 6263,
      "dfd": 6264,
      "829": 6265,
      "Size": 6266,
      "Ġextra": 6267,
      "ING": 6268,
      "Ġthere": 6269,
      "ĠHTTP": 6270,
      "824": 6271,
      "non": 6272,
      "ould": 6273,
      "åļ": 6274,
      "716": 6275,
      "Ġunittest": 6276,
      "659": 6277,
      "0076": 6278,
      "909": 6279,
      "æ´Ľå¤«": 6280,
      "çº½": 6281,
      "058941": 6282,
      "ĠInitial": 6283,
      "0138": 6284,
      "871": 6285,
      "0103058941": 6286,
      "861": 6287,
      "faa": 6288,
      "848": 6289,
      "Ġver": 6290,
      "462": 6291,
      "Ġtypes": 6292,
      "734": 6293,
      "å½¤": 6294,
      "dae": 6295,
      "0094": 6296,
      "ĠTEST": 6297,
      "Ġsuch": 6298,
      "854": 6299,
      "idual": 6300,
      "ä½©å°Ķ": 6301,
      "contiguous": 6302,
      "ç½Ĺæĸ¯": 6303,
      "719": 6304,
      "838": 6305,
      "Ġnamed": 6306,
      "ategy": 6307,
      "Col": 6308,
      "420": 6309,
      "cfd": 6310,
      "æħ¶": 6311,
      "422": 6312,
      "èĿ": 6313,
      "0167": 6314,
      "Ġgiven": 6315,
      "639": 6316,
      "multi": 6317,
      "Ġexplicit": 6318,
      "702": 6319,
      "808": 6320,
      "å·¨": 6321,
      "action": 6322,
      "Ġtemplate": 6323,
      "æł¸": 6324,
      "registry": 6325,
      "utf": 6326,
      "å½Ĵ": 6327,
      "Conditional": 6328,
      "éī": 6329,
      "0177": 6330,
      "å¥ķ": 6331,
      "èĢ³": 6332,
      "cfc": 6333,
      "å©§": 6334,
      "0188": 6335,
      "Ġenum": 6336,
      "ddd": 6337,
      "è¯ºç»´å¥ĩ": 6338,
      "OS": 6339,
      "tv": 6340,
      "æ»¨": 6341,
      "å°§": 6342,
      "çŃĶ": 6343,
      "878": 6344,
      "0178": 6345,
      "837": 6346,
      "0084": 6347,
      "atrix": 6348,
      "859": 6349,
      "877": 6350,
      "CON": 6351,
      "File": 6352,
      "Ġnames": 6353,
      "0066": 6354,
      "Ġ103": 6355,
      "Qy": 6356,
      "0153": 6357,
      "cei": 6358,
      "816": 6359,
      "è¡¡": 6360,
      "764": 6361,
      "709": 6362,
      "814": 6363,
      "Ġlocal": 6364,
      "å¤ªéĥİ": 6365,
      "834": 6366,
      "934": 6367,
      "Qx": 6368,
      "å²Ń": 6369,
      "'))": 6370,
      "ĠPy": 6371,
      "Inter": 6372,
      "ĠĠĠĠĠĠĠĠĠĠĠĠĠĠĠĠĠĠĠĠĠĠĠĠĠĠĠĠĠ": 6373,
      "Ġ7763": 6374,
      "Ġ108": 6375,
      "æ¹¾": 6376,
      "unding": 6377,
      "åµ": 6378,
      "eec": 6379,
      "éĢģ": 6380,
      "CC": 6381,
      "å¸®": 6382,
      "è´¹å°Ķ": 6383,
      "Ġsrc": 6384,
      "èµŀ": 6385,
      "```": 6386,
      "éį": 6387,
      "climate": 6388,
      "ĠWei": 6389,
      "sole": 6390,
      "619": 6391,
      "0087": 6392,
      "uring": 6393,
      "732": 6394,
      "No": 6395,
      "original": 6396,
      "å¯º": 6397,
      "807": 6398,
      "952": 6399,
      "1274": 6400,
      "probs": 6401,
      "åĨī": 6402,
      "Method": 6403,
      "ords": 6404,
      "ically": 6405,
      "355": 6406,
      "Ġdisplay": 6407,
      "ship": 6408,
      "ddc": 6409,
      "pace": 6410,
      "åħ»": 6411,
      "ä½¿": 6412,
      "790": 6413,
      "vich": 6414,
      "Ġ109": 6415,
      "ummy": 6416,
      "fae": 6417,
      "cp": 6418,
      "748": 6419,
      "650": 6420,
      "211": 6421,
      "edd": 6422,
      "åĨĻ": 6423,
      "Back": 6424,
      "å®½": 6425,
      "Video": 6426,
      "803": 6427,
      "çĽĲ": 6428,
      "0558": 6429,
      "è·Į": 6430,
      "We": 6431,
      "åĪ¶èį¯": 6432,
      "foo": 6433,
      "çĤľ": 6434,
      "peed": 6435,
      "æĹĹ": 6436,
      "zy": 6437,
      "cdc": 6438,
      "perim": 6439,
      "Ġdataset": 6440,
      "937": 6441,
      "Temp": 6442,
      "Ġscores": 6443,
      "åĪĴ": 6444,
      "åĬŀ": 6445,
      "gpu": 6446,
      "cos": 6447,
      "çĥĪ": 6448,
      "927": 6449,
      "çį": 6450,
      "0317": 6451,
      "è§Ħ": 6452,
      "Ġ-.": 6453,
      "dist": 6454,
      "æĬĹ": 6455,
      "æ©Ł": 6456,
      "917": 6457,
      "åĭĭ": 6458,
      "day": 6459,
      "0097": 6460,
      "Ġinvariant": 6461,
      "çŁŃ": 6462,
      "è®¡ç®Ĺ": 6463,
      "908": 6464,
      "Handler": 6465,
      "0169": 6466,
      "ower": 6467,
      "957": 6468,
      "uning": 6469,
      "å¸ĥç½Ĺ": 6470,
      "usion": 6471,
      "ĠVariable": 6472,
      "Ġinv": 6473,
      "770": 6474,
      "thing": 6475,
      "BU": 6476,
      "Ġexpression": 6477,
      "739": 6478,
      "åĲĦ": 6479,
      "é¦¨": 6480,
      "ĠInc": 6481,
      "PO": 6482,
      "ĠSorted": 6483,
      "ytics": 6484,
      "747": 6485,
      "Ġscal": 6486,
      "æĽ´": 6487,
      "Ġthey": 6488,
      "fact": 6489,
      "916": 6490,
      "Ad": 6491,
      "èĬ¸": 6492,
      "Ġobjects": 6493,
      "769": 6494,
      "eda": 6495,
      "æķ£": 6496,
      "827": 6497,
      "æ°ı": 6498,
      "Response": 6499,
      "åģļ": 6500,
      "812": 6501,
      "ci": 6502,
      "]):": 6503,
      "cross": 6504,
      "Ġwhile": 6505,
      "956238": 6506,
      "bea": 6507,
      "dad": 6508,
      "ctionary": 6509,
      "9562386728": 6510,
      "869": 6511,
      "ropout": 6512,
      "score": 6513,
      "PLA": 6514,
      "ove": 6515,
      "Ġindices": 6516,
      "0198": 6517,
      "Ġdon": 6518,
      "841": 6519,
      "ĠFu": 6520,
      "ovic": 6521,
      "928": 6522,
      "sin": 6523,
      "æĭīå°Ķ": 6524,
      "æ¾¤": 6525,
      "758": 6526,
      "0199": 6527,
      "stant": 6528,
      "æĺĬ": 6529,
      "åıª": 6530,
      "712": 6531,
      "903": 6532,
      "943": 6533,
      "759": 6534,
      "ĠXi": 6535,
      "wen": 6536,
      "Ġauto": 6537,
      "729": 6538,
      "Ġ\"\"": 6539,
      "connection": 6540,
      "ranch": 6541,
      "ental": 6542,
      "ĠName": 6543,
      "éĴ°": 6544,
      "Ġè¿Ļ": 6545,
      "Ġwindow": 6546,
      "æł¼éĩĮ": 6547,
      "979": 6548,
      "436": 6549,
      "çī¹å°Ķ": 6550,
      "Ġbytes": 6551,
      "Ġ117": 6552,
      "Ġtotal": 6553,
      "968": 6554,
      "932": 6555,
      "rank": 6556,
      "ä¼ĳ": 6557,
      "åİĤ": 6558,
      "penden": 6559,
      "bl": 6560,
      "Ġscale": 6561,
      "ä¼Ĺ": 6562,
      "åºĹ": 6563,
      "ç§»": 6564,
      "æŀģ": 6565,
      "éªĮ": 6566,
      "Ġtwo": 6567,
      "Ġ320": 6568,
      "layout": 6569,
      "9999999993": 6570,
      "460": 6571,
      "839": 6572,
      "TIC": 6573,
      "bac": 6574,
      "050000000001": 6575,
      "é¹¤": 6576,
      "958": 6577,
      "977": 6578,
      "mi": 6579,
      "0086": 6580,
      "953": 6581,
      "0206": 6582,
      "State": 6583,
      "767": 6584,
      "ĠIs": 6585,
      "817": 6586,
      "Lu": 6587,
      "é¥¶": 6588,
      "éİ": 6589,
      "959": 6590,
      "COM": 6591,
      "ĠWhether": 6592,
      "Pe": 6593,
      "gate": 6594,
      "ello": 6595,
      "baf": 6596,
      "Expr": 6597,
      "arange": 6598,
      "Ġ\"--": 6599,
      "strip": 6600,
      "0159": 6601,
      "å¤ľ": 6602,
      "Index": 6603,
      "æ¨ª": 6604,
      "ĠDa": 6605,
      "906": 6606,
      "fce": 6607,
      "899": 6608,
      "0213": 6609,
      "969": 6610,
      "oid": 6611,
      "å¾ħ": 6612,
      "è²´": 6613,
      "dac": 6614,
      "æĦĽ": 6615,
      "Sy": 6616,
      "000000": 6617,
      "transformer": 6618,
      "Location": 6619,
      "938": 6620,
      "è®¤": 6621,
      "opset": 6622,
      "Request": 6623,
      "Ġfmt": 6624,
      "åĩĨ": 6625,
      "å°¼åħĭ": 6626,
      "datetime": 6627,
      "ConditionalGeneration": 6628,
      "bde": 6629,
      "æĭīæĸ¯": 6630,
      "protocol": 6631,
      "SON": 6632,
      "du": 6633,
      "0239": 6634,
      "780": 6635,
      "430": 6636,
      "0096": 6637,
      "0139": 6638,
      "aae": 6639,
      "0035": 6640,
      "Ġhasattr": 6641,
      "907": 6642,
      "ko": 6643,
      "Ġdire": 6644,
      "ForConditionalGeneration": 6645,
      "é¼İ": 6646,
      "ç°": 6647,
      "Ġembed": 6648,
      "0214": 6649,
      "Ġoperator": 6650,
      "ç»Ŀ": 6651,
      "cloud": 6652,
      "arr": 6653,
      "å®Į": 6654,
      "å¼¹": 6655,
      "sdp": 6656,
      "749": 6657,
      "æ²¡": 6658,
      "æµª": 6659,
      "Ġdecimal": 6660,
      "dab": 6661,
      "slow": 6662,
      "===": 6663,
      "423": 6664,
      "mv": 6665,
      "éĸĢ": 6666,
      "Ġwant": 6667,
      "éĢ²": 6668,
      "0219": 6669,
      "depth": 6670,
      "881": 6671,
      "311": 6672,
      "dt": 6673,
      "äº¡": 6674,
      "é¢¨": 6675,
      "PHER": 6676,
      "åİĨ": 6677,
      "849": 6678,
      "913": 6679,
      "place": 6680,
      "ç§¯": 6681,
      "0786": 6682,
      "åħģ": 6683,
      "BinarySensorEntityDescription": 6684,
      "CIPHER": 6685,
      "éĻ©": 6686,
      "Ġdocument": 6687,
      "au": 6688,
      "Context": 6689,
      ")`,": 6690,
      "964": 6691,
      "å²ĳ": 6692,
      "[...,": 6693,
      "ä¸´": 6694,
      "Ġdes": 6695,
      "Ġmean": 6696,
      "peat": 6697,
      "CIPHERTEXT": 6698,
      "0228": 6699,
      "æľĥ": 6700,
      "ebe": 6701,
      "çıĢ": 6702,
      "Left": 6703,
      "914": 6704,
      "0043": 6705,
      "Ġfields": 6706,
      "954": 6707,
      "bot": 6708,
      "1822": 6709,
      "0162": 6710,
      "compiler": 6711,
      "LIB": 6712,
      "Dis": 6713,
      "çĽ§": 6714,
      "æ½®": 6715,
      "Cache": 6716,
      "dirname": 6717,
      "è´Ŀæł¼": 6718,
      "è¦ĥ": 6719,
      "Ġdel": 6720,
      "ernorm": 6721,
      "0015": 6722,
      "çĶ«": 6723,
      "äº¦": 6724,
      "orld": 6725,
      "Ġtim": 6726,
      "0207": 6727,
      "åıĶ": 6728,
      "ĠMessage": 6729,
      "å©ļ": 6730,
      "normalize": 6731,
      "433": 6732,
      "Ġeval": 6733,
      "å¼Ł": 6734,
      "alf": 6735,
      "Ġpl": 6736,
      "å¸ĥéĽ·": 6737,
      "cab": 6738,
      "Ġfind": 6739,
      "Ġlabel": 6740,
      "filename": 6741,
      "çĶ»": 6742,
      "0316": 6743,
      "æĸŃ": 6744,
      "before": 6745,
      "Ġ101": 6746,
      "layernorm": 6747,
      "dbb": 6748,
      "å¶": 6749,
      "Ġ114": 6750,
      "ç¸£": 6751,
      "967": 6752,
      "pz": 6753,
      "Ġlayers": 6754,
      "912": 6755,
      "æ¢ħå°Ķ": 6756,
      "enchmark": 6757,
      "Linux": 6758,
      "Path": 6759,
      "ffers": 6760,
      "åĢĴ": 6761,
      "è½¯": 6762,
      "vious": 6763,
      "Ġfil": 6764,
      "mul": 6765,
      "726": 6766,
      "0238": 6767,
      "ĠModel": 6768,
      "924": 6769,
      "oks": 6770,
      "HT": 6771,
      "0189": 6772,
      "0217": 6773,
      "çĵľ": 6774,
      "metadata": 6775,
      "0216": 6776,
      "Ġbox": 6777,
      "åģĩ": 6778,
      "æł·": 6779,
      ")?": 6780,
      "VI": 6781,
      "Ġ132": 6782,
      "Ġnode": 6783,
      "çº³å°Ķ": 6784,
      "éħį": 6785,
      "å¸Ĥåľº": 6786,
      "webpage": 6787,
      "åĸ»": 6788,
      "Det": 6789,
      "TES": 6790,
      "idd": 6791,
      "ç»¿": 6792,
      "eba": 6793,
      "Ġincluded": 6794,
      "0147": 6795,
      "Ġbecause": 6796,
      "Ġview": 6797,
      "table": 6798,
      "edc": 6799,
      "0313": 6800,
      "okup": 6801,
      "orks": 6802,
      "ancel": 6803,
      "ume": 6804,
      "0332": 6805,
      "æľ«": 6806,
      "6904": 6807,
      "Ġdoesn": 6808,
      "tstring": 6809,
      "__\"": 6810,
      "çīĻ": 6811,
      "å¾·éĩĮ": 6812,
      "è¨±": 6813,
      "activation": 6814,
      "TA": 6815,
      "å¾ĭ": 6816,
      "847": 6817,
      "Ġgrid": 6818,
      "èĪŀ": 6819,
      "Ġchar": 6820,
      "cac": 6821,
      "çīĮ": 6822,
      "stract": 6823,
      "ĠAtt": 6824,
      "ansformersKwargs": 6825,
      "ĠRes": 6826,
      "Ġchange": 6827,
      "Ġds": 6828,
      "èŀį": 6829,
      "âĶĢâĶĢ": 6830,
      "Group": 6831,
      "edf": 6832,
      "TesterMixin": 6833,
      "Ġ113": 6834,
      "ĠDefault": 6835,
      "0232": 6836,
      "button": 6837,
      "MAP": 6838,
      "åħĴ": 6839,
      "respon": 6840,
      "æ£Ģ": 6841,
      "ĠBaseModelOutput": 6842,
      "Torch": 6843,
      "Keys": 6844,
      "929": 6845,
      "caf": 6846,
      "div": 6847,
      "939": 6848,
      "948": 6849,
      "]+": 6850,
      "Ġcre": 6851,
      "ImageProcessor": 6852,
      "Ġmodules": 6853,
      "ĠLATIN": 6854,
      "çĮ®": 6855,
      "fg": 6856,
      "ki": 6857,
      "éªĨ": 6858,
      "èĦĳ": 6859,
      "Per": 6860,
      "0179": 6861,
      "0227": 6862,
      "ĠEXPECTED": 6863,
      "974": 6864,
      "frames": 6865,
      "eee": 6866,
      "ĠOverride": 6867,
      "750": 6868,
      "LITY": 6869,
      "fab": 6870,
      "éĲ": 6871,
      "823": 6872,
      "style": 6873,
      "å¸Ĩ": 6874,
      "450": 6875,
      "9049453": 6876,
      "9049453784": 6877,
      "CS": 6878,
      "aac": 6879,
      "Ġimported": 6880,
      "You": 6881,
      "now": 6882,
      "Ġdjango": 6883,
      "éĢĢ": 6884,
      "lang": 6885,
      "fff": 6886,
      "eac": 6887,
      "dde": 6888,
      "Conv": 6889,
      "426": 6890,
      "ĠSi": 6891,
      "1054": 6892,
      "funct": 6893,
      "ä»ĸ": 6894,
      "970": 6895,
      "ç´Ģ": 6896,
      "è½»": 6897,
      "na": 6898,
      "éľįå°Ķ": 6899,
      "ĠGeneration": 6900,
      "åĵ¥": 6901,
      "å¡Ķå°Ķ": 6902,
      "zstd": 6903,
      "èĻŀ": 6904,
      "][": 6905,
      "codecs": 6906,
      "919": 6907,
      "assertIs": 6908,
      "Ġhe": 6909,
      "ä¾ł": 6910,
      "å¥Ĺ": 6911,
      "0318": 6912,
      "Ġcard": 6913,
      "views": 6914,
      "ored": 6915,
      "cbc": 6916,
      "èĮľ": 6917,
      "IO": 6918,
      "UND": 6919,
      "Ġ213": 6920,
      "AND": 6921,
      "fea": 6922,
      "ddf": 6923,
      "ccc": 6924,
      "tralytics": 6925,
      "izing": 6926,
      "ffb": 6927,
      "CD": 6928,
      "limit": 6929,
      "ç³ĸ": 6930,
      "891": 6931,
      "ĠBuild": 6932,
      "879": 6933,
      "hd": 6934,
      "ebb": 6935,
      "windows": 6936,
      "dce": 6937,
      "exc": 6938,
      "rough": 6939,
      "Ġeps": 6940,
      "GS": 6941,
      "Ġmain": 6942,
      "aab": 6943,
      "è¹": 6944,
      "ina": 6945,
      "æĿī": 6946,
      "å¸ķå°Ķ": 6947,
      "Ġdatabase": 6948,
      "åĪĢ": 6949,
      "event": 6950,
      "Ġprompt": 6951,
      "folder": 6952,
      "ĠTensor": 6953,
      "åįļå°Ķ": 6954,
      "2010": 6955,
      "register": 6956,
      "ten": 6957,
      "999999": 6958,
      "åħ·": 6959,
      "edb": 6960,
      "Iter": 6961,
      "ç¥¨": 6962,
      "hs": 6963,
      "),),": 6964,
      "Ġcalled": 6965,
      "case": 6966,
      "Ġtitle": 6967,
      "æķ¦": 6968,
      "éĽģ": 6969,
      "åĨ³": 6970,
      "eab": 6971,
      "atted": 6972,
      "Select": 6973,
      "idget": 6974,
      "groups": 6975,
      "440": 6976,
      "Ġparse": 6977,
      "Ġstd": 6978,
      "distributions": 6979,
      "ffd": 6980,
      "Ġembedding": 6981,
      "èĭĳ": 6982,
      "Ġsplit": 6983,
      "cde": 6984,
      "Ġbeen": 6985,
      "èĪ¹": 6986,
      "feb": 6987,
      "ç²ī": 6988,
      "0174": 6989,
      "dump": 6990,
      "1058": 6991,
      "bbb": 6992,
      "äºĮåįģ": 6993,
      "Ġ159": 6994,
      "ç»ĥ": 6995,
      "dbf": 6996,
      "ç¥ģ": 6997,
      "å¥¥åį¢": 6998,
      "cad": 6999,
      "950": 7000,
      "662": 7001,
      "0506": 7002,
      "50000000005": 7003,
      "èģļ": 7004,
      "Ġrequires": 7005,
      "æŃ¢": 7006,
      "Ġtrack": 7007,
      "fsdp": 7008,
      "0229": 7009,
      "èĢ¶å°Ķ": 7010,
      "ready": 7011,
      "Wh": 7012,
      "sync": 7013,
      "æį¢": 7014,
      "bce": 7015,
      "entence": 7016,
      "455": 7017,
      "740": 7018,
      "1979": 7019,
      "822": 7020,
      "dba": 7021,
      "Ġatol": 7022,
      "cryption": 7023,
      "cbe": 7024,
      "Ab": 7025,
      "Ke": 7026,
      "fee": 7027,
      "0306": 7028,
      "ç¼ĸ": 7029,
      "fbf": 7030,
      "iddle": 7031,
      "Ġ129": 7032,
      "release": 7033,
      "TED": 7034,
      "ĠAttributes": 7035,
      "åįĸ": 7036,
      "ĠCallable": 7037,
      "perimental": 7038,
      "9999999992": 7039,
      "å»£": 7040,
      "flash": 7041,
      "ĠEr": 7042,
      "éĴ§": 7043,
      "bfa": 7044,
      "çĹĽ": 7045,
      "æĢ¥": 7046,
      "èĽĭ": 7047,
      "947": 7048,
      "fef": 7049,
      "Ġpost": 7050,
      "éĻ¸": 7051,
      "è´ĿéĩĮ": 7052,
      "ede": 7053,
      "Ġmutable": 7054,
      "Ġpage": 7055,
      "961": 7056,
      "0209": 7057,
      "049999999999": 7058,
      "Ġglobal": 7059,
      "åĬłå°Ķ": 7060,
      "ators": 7061,
      "decomposition": 7062,
      "Mar": 7063,
      "aaf": 7064,
      "0237": 7065,
      "Ġconnection": 7066,
      "reference": 7067,
      "Ġthese": 7068,
      "ider": 7069,
      "éĺ´": 7070,
      "400": 7071,
      "1798": 7072,
      ".\\": 7073,
      "åĦĴ": 7074,
      "Ġexplicitly": 7075,
      "aea": 7076,
      "site": 7077,
      "erate": 7078,
      "Ġfilter": 7079,
      "ecd": 7080,
      "SwitchEntityDescription": 7081,
      "RAPH": 7082,
      "ĠMa": 7083,
      "IT": 7084,
      "Ġgo": 7085,
      "éĶĻ": 7086,
      "æĻ®æĭī": 7087,
      "Batched": 7088,
      "cdf": 7089,
      "cost": 7090,
      "971": 7091,
      "tools": 7092,
      "1000": 7093,
      "BINARY": 7094,
      "fad": 7095,
      "tz": 7096,
      "1152": 7097,
      "Ty": 7098,
      "Ġ118": 7099,
      "630": 7100,
      "dbc": 7101,
      "è¡¥": 7102,
      "ĠJi": 7103,
      "Ġ127": 7104,
      "Ġ148": 7105,
      "Ġhere": 7106,
      "å¨£": 7107,
      "820": 7108,
      "çłģ": 7109,
      "MP": 7110,
      "çĸĳ": 7111,
      "zero": 7112,
      "ves": 7113,
      "èļ": 7114,
      "éĽ»": 7115,
      "fec": 7116,
      "ĠPrime": 7117,
      "0212": 7118,
      "0254": 7119,
      "850": 7120,
      "ç¿°": 7121,
      "bbf": 7122,
      "0308": 7123,
      "Return": 7124,
      "0244": 7125,
      "ccb": 7126,
      "èĲĮ": 7127,
      "'):": 7128,
      "chat": 7129,
      "0314": 7130,
      "1111": 7131,
      "è´¡": 7132,
      "æķĳ": 7133,
      "bfc": 7134,
      "å¥ĸ": 7135,
      "efd": 7136,
      "show": 7137,
      "other": 7138,
      "ccd": 7139,
      "è¯ºå¨ĥ": 7140,
      "ç»ª": 7141,
      "ffa": 7142,
      "ways": 7143,
      "0136": 7144,
      "subclasses": 7145,
      "å¼Ĺæĭī": 7146,
      "éłŃ": 7147,
      "pan": 7148,
      "pture": 7149,
      "Stream": 7150,
      "ebf": 7151,
      "bbc": 7152,
      "åĲĥ": 7153,
      "ROW": 7154,
      "Ġtag": 7155,
      "gt": 7156,
      "Ġcould": 7157,
      "ffc": 7158,
      "Ġteam": 7159,
      "ability": 7160,
      "874": 7161,
      "cbb": 7162,
      "å§¬": 7163,
      "efa": 7164,
      "netty": 7165,
      "0252": 7166,
      "eaf": 7167,
      "Ġter": 7168,
      "als": 7169,
      "0328": 7170,
      "ç§ī": 7171,
      "fdf": 7172,
      "fbd": 7173,
      "è½®": 7174,
      "ograd": 7175,
      "bill": 7176,
      "762": 7177,
      "490": 7178,
      "ReadSchema": 7179,
      "å½¼": 7180,
      "dbd": 7181,
      "PING": 7182,
      "aee": 7183,
      "830": 7184,
      "fde": 7185,
      "connect": 7186,
      "ä¼ı": 7187,
      "0126": 7188,
      "å±Ĥ": 7189,
      "Ġarray": 7190,
      "Ġ124": 7191,
      "faf": 7192,
      "ley": 7193,
      "3453": 7194,
      "Ġparameters": 7195,
      "onen": 7196,
      ":]": 7197,
      "bcd": 7198,
      "ung": 7199,
      "980": 7200,
      "880": 7201,
      "Ġvari": 7202,
      "1052": 7203,
      "æĺł": 7204,
      "Ġvis": 7205,
      "causal": 7206,
      "fdd": 7207,
      "çĶľ": 7208,
      "Ġcontaining": 7209,
      "aad": 7210,
      "800": 7211,
      "902": 7212,
      "mary": 7213,
      "0122": 7214,
      "æ¥Ń": 7215,
      "çĿ¿": 7216,
      "ĠEncryption": 7217,
      "éģł": 7218,
      "VALI": 7219,
      "ted": 7220,
      "Ġ119": 7221,
      "549999999999": 7222,
      "discord": 7223,
      "ece": 7224,
      "cdd": 7225,
      "Ġ&": 7226,
      "ä¸Ľ": 7227,
      "estim": 7228,
      "spatch": 7229,
      "æ¸¸æĪı": 7230,
      "0184": 7231,
      "Ġcr": 7232,
      "ebd": 7233,
      "Django": 7234,
      "cord": 7235,
      "infer": 7236,
      "Ġ156": 7237,
      "éĶĲ": 7238,
      "bbd": 7239,
      "è®Ń": 7240,
      "debug": 7241,
      "Ġkernel": 7242,
      "æ¤į": 7243,
      "Ġ245": 7244,
      "0324": 7245,
      "å¸ĥé²ģ": 7246,
      "partition": 7247,
      "icle": 7248,
      "Ġfull": 7249,
      "1105": 7250,
      "æ²ĥå°Ķ": 7251,
      "eaa": 7252,
      "SensorDescription": 7253,
      "ja": 7254,
      "èĪĪ": 7255,
      "ani": 7256,
      "åįĢ": 7257,
      "8096": 7258,
      "æĪĸ": 7259,
      "ç¦Ħ": 7260,
      "ĠGemma": 7261,
      "DO": 7262,
      "Jo": 7263,
      "cbf": 7264,
      "Ġimg": 7265,
      "Ġce": 7266,
      "Ġcross": 7267,
      "bba": 7268,
      "LayerNorm": 7269,
      "866": 7270,
      "0092": 7271,
      "manager": 7272,
      "0072": 7273,
      "è³¢": 7274,
      "Moe": 7275,
      "ccf": 7276,
      "ebc": 7277,
      "ĠImport": 7278,
      "sys": 7279,
      "interface": 7280,
      "Ġ266": 7281,
      "pruning": 7282,
      "daf": 7283,
      "bda": 7284,
      "bdf": 7285,
      "ecf": 7286,
      "å±ĭ": 7287,
      "cba": 7288,
      "environ": 7289,
      "codec": 7290,
      "wsgi": 7291,
      "================================================================================================": 7292,
      "once": 7293,
      "isEmpty": 7294,
      "lava": 7295,
      "bbe": 7296,
      "INED": 7297,
      "dcd": 7298,
      "remo": 7299,
      "Ġsave": 7300,
      ")):": 7301,
      "cce": 7302,
      "EB": 7303,
      "ero": 7304,
      "Ġ133": 7305,
      "Ġ'''": 7306,
      "omat": 7307,
      "åĵĪå°Ķ": 7308,
      "éĸĭ": 7309,
      "Results": 7310,
      "alt": 7311,
      "Ġ186": 7312,
      "862": 7313,
      "æĿĲ": 7314,
      "åĤ¨": 7315,
      "èµ¤": 7316,
      "predict": 7317,
      "VALID": 7318,
      "0248": 7319,
      "0378": 7320,
      "experimental": 7321,
      "å¯¶": 7322,
      "small": 7323,
      "region": 7324,
      "636": 7325,
      "ĠAl": 7326,
      "Ġheader": 7327,
      "bos": 7328,
      "Ġexists": 7329,
      "åħĭèİ±": 7330,
      "720": 7331,
      "cbd": 7332,
      "objects": 7333,
      "efc": 7334,
      "æĺ¯ä¸Ģä¸ª": 7335,
      "bca": 7336,
      "pred": 7337,
      "abs": 7338,
      "ç²Ĵ": 7339,
      "è¦ĭ": 7340,
      "8561552": 7341,
      "################": 7342,
      "8561552143": 7343,
      "wr": 7344,
      "FOR": 7345,
      "olo": 7346,
      "BILITY": 7347,
      "Ġpredi": 7348,
      "å¤®": 7349,
      "fbc": 7350,
      "pc": 7351,
      "tect": 7352,
      "å»ī": 7353,
      "Com": 7354,
      "0267": 7355,
      "liding": 7356,
      "åģľ": 7357,
      "buffers": 7358,
      "CHEC": 7359,
      "dda": 7360,
      "0166": 7361,
      "1059": 7362,
      "èĴ²": 7363,
      "Ġtrans": 7364,
      "1234": 7365,
      "æħĪ": 7366,
      "EXT": 7367,
      "XX": 7368,
      "fcf": 7369,
      "Ġkeep": 7370,
      "Ġslice": 7371,
      "ĠTr": 7372,
      "çĶ·åŃĲ": 7373,
      "efb": 7374,
      "æģŃ": 7375,
      "èµ«å°Ķ": 7376,
      "handler": 7377,
      "149999999999": 7378,
      "iled": 7379,
      "ç¤ºä¾ĭ": 7380,
      "\"\\": 7381,
      "false": 7382,
      "inst": 7383,
      "5707": 7384,
      "ecb": 7385,
      "ka": 7386,
      "Ġold": 7387,
      "ä¹°": 7388,
      "tags": 7389,
      "766": 7390,
      "Head": 7391,
      "ç§ĳç»´å¥ĩ": 7392,
      "fbe": 7393,
      "Pri": 7394,
      "eos": 7395,
      "ç¿¼": 7396,
      "Ġ...,": 7397,
      "è¯¸": 7398,
      "cca": 7399,
      "çİ©": 7400,
      "Ġpool": 7401,
      "Ġ134": 7402,
      "Ġgenerate": 7403,
      "æª": 7404,
      "ç¶Ń": 7405,
      "Like": 7406,
      "fcd": 7407,
      "ä½ĳ": 7408,
      "US": 7409,
      "ĠVa": 7410,
      "offset": 7411,
      "bfd": 7412,
      "nnot": 7413,
      "0197": 7414,
      "åĪĹçļĦ": 7415,
      "CLIP": 7416,
      "eca": 7417,
      "0073": 7418,
      "Broadcast": 7419,
      "çĳĽ": 7420,
      "Ġresidual": 7421,
      "metric": 7422,
      "Ġ138": 7423,
      "Ġhigh": 7424,
      "0348": 7425,
      "Ġauth": 7426,
      "atal": 7427,
      "header": 7428,
      ".,": 7429,
      "1056": 7430,
      "dense": 7431,
      "æł¼éĽ·": 7432,
      "equal": 7433,
      "KING": 7434,
      "Pushed": 7435,
      "lying": 7436,
      "åį±": 7437,
      "INF": 7438,
      "Ġremoved": 7439,
      "èĪŁ": 7440,
      "PushedFilters": 7441,
      "åįı": 7442,
      "Ġour": 7443,
      "æĺķ": 7444,
      "çī¹ç½Ĺ": 7445,
      "strings": 7446,
      "1113": 7447,
      "éĿ©": 7448,
      "åĪĩå°Ķ": 7449,
      "find": 7450,
      "Ġ08": 7451,
      "è¿ĺ": 7452,
      "æĸĲæ³¢": 7453,
      "CF": 7454,
      "éķľ": 7455,
      "826": 7456,
      "GE": 7457,
      "éĤ£å¥ĳ": 7458,
      "fca": 7459,
      "2959": 7460,
      "å·±": 7461,
      "iao": 7462,
      "æļ´": 7463,
      "æĸĲæ³¢éĤ£å¥ĳ": 7464,
      "åĲ«": 7465,
      "Id": 7466,
      "IRE": 7467,
      "cda": 7468,
      "isnotnull": 7469,
      "æķ°åĪĹçļĦ": 7470,
      "æĸĲæ³¢éĤ£å¥ĳæķ°åĪĹçļĦ": 7471,
      "ä¸Ģéĥİ": 7472,
      "Ġè¿Ļæĺ¯ä¸Ģä¸ª": 7473,
      "962": 7474,
      "ky": 7475,
      "è®¡ç®ĹæĸĲæ³¢éĤ£å¥ĳæķ°åĪĹçļĦ": 7476,
      "Ġ04": 7477,
      "Ġ255": 7478,
      "åį·": 7479,
      "MAPPING": 7480,
      "ally": 7481,
      "plot": 7482,
      "proxy": 7483,
      "åł¡": 7484,
      "1053": 7485,
      "æħķ": 7486,
      "EFINED": 7487,
      "autograd": 7488,
      "Ġaut": 7489,
      "compute": 7490,
      "ral": 7491,
      "Ġupdate": 7492,
      "attributes": 7493,
      "å¹¶": 7494,
      "eek": 7495,
      "736": 7496,
      "Def": 7497,
      "aces": 7498,
      "Sch": 7499,
      "æĭį": 7500,
      "fba": 7501,
      "SQL": 7502,
      "fdc": 7503,
      "erature": 7504,
      "0309": 7505,
      "1099": 7506,
      "çĽĳ": 7507,
      "Ġprefix": 7508,
      "Ġ\"<": 7509,
      "dbe": 7510,
      "Ġcheckpoint": 7511,
      "è¬Ŀ": 7512,
      "ĠParameter": 7513,
      "Ġtheir": 7514,
      "cfa": 7515,
      "0334": 7516,
      "\".": 7517,
      "urser": 7518,
      "Ġ158": 7519,
      "0176": 7520,
      "hist": 7521,
      "0055": 7522,
      "1622": 7523,
      "ird": 7524,
      "æİ§": 7525,
      "speech": 7526,
      "æī¹": 7527,
      "eea": 7528,
      "dcf": 7529,
      "bbox": 7530,
      "WithPast": 7531,
      "bfloat": 7532,
      "æĶ»": 7533,
      "é¸¡": 7534,
      "rs": 7535,
      "Ġ384": 7536,
      "Ġcast": 7537,
      "Ġconv": 7538,
      "Ġ152": 7539,
      "Ġinf": 7540,
      "ç½®": 7541,
      "Ġadded": 7542,
      "stage": 7543,
      "0327": 7544,
      "Ġda": 7545,
      "ĠLai": 7546,
      "fda": 7547,
      "Ġpos": 7548,
      "351986": 7549,
      "ç¾Ĭ": 7550,
      "åĨħå°Ķ": 7551,
      "vider": 7552,
      "0063": 7553,
      "ski": 7554,
      "eae": 7555,
      "922": 7556,
      "ä»ĩ": 7557,
      "éĿ³": 7558,
      "Ġsecond": 7559,
      "Ġattentions": 7560,
      "gradient": 7561,
      "Mon": 7562,
      "0513": 7563,
      "633": 7564,
      "1116": 7565,
      "Ġmemory": 7566,
      "8096351986": 7567,
      "976": 7568,
      "0307": 7569,
      "Ġnumpy": 7570,
      "Ġpandas": 7571,
      "1057": 7572,
      "))#": 7573,
      "dantic": 7574,
      "0000000006": 7575,
      "ç¦¹": 7576,
      "0364": 7577,
      "prec": 7578,
      "Ġpe": 7579,
      "0247": 7580,
      "æ¡Ĳ": 7581,
      "bae": 7582,
      "fields": 7583,
      "ĠChi": 7584,
      "000000000001": 7585,
      "Ġstates": 7586,
      "ali": 7587,
      "0133": 7588,
      "Ġsure": 7589,
      "ĠPreTrained": 7590,
      "éĻµ": 7591,
      "è¿°": 7592,
      "Ġsee": 7593,
      "Button": 7594,
      "æĻļ": 7595,
      "Su": 7596,
      "Ġpred": 7597,
      "scaling": 7598,
      "Ġá": 7599,
      "baa": 7600,
      "0045": 7601,
      "metrics": 7602,
      "dfa": 7603,
      "å°¼å¥ĩ": 7604,
      "0187": 7605,
      "examples": 7606,
      "åĽ½éĻħ": 7607,
      "Ġ122": 7608,
      "orth": 7609,
      "éĢĤ": 7610,
      "qa": 7611,
      "é©¬åħĭ": 7612,
      "æĢģ": 7613,
      "ĠIsNotNull": 7614,
      "èĵ¬": 7615,
      "76518": 7616,
      "initialized": 7617,
      "bcf": 7618,
      "730": 7619,
      "åĿĤ": 7620,
      "bdc": 7621,
      "Ġ137": 7622,
      "Ser": 7623,
      "æŀĦ": 7624,
      "942": 7625,
      "Ġ157": 7626,
      "æŀ¶": 7627,
      "ä¸Ĭæµ·": 7628,
      "mote": 7629,
      "acceler": 7630,
      "0299": 7631,
      "99999999993": 7632,
      "phonen": 7633,
      "0253": 7634,
      "TransformersKwargs": 7635,
      "å¾Ī": 7636,
      "Call": 7637,
      "0196": 7638,
      "Na": 7639,
      "0258": 7640,
      "outube": 7641,
      "ä¸ĸçķĮ": 7642,
      "æĳ©": 7643,
      "Ġtmp": 7644,
      "ursery": 7645,
      "å½¥": 7646,
      "Ġdictionary": 7647,
      ".\",": 7648,
      "lish": 7649,
      "Ġpack": 7650,
      "pytorch": 7651,
      "Ġdeprecated": 7652,
      "dca": 7653,
      "éŁĵ": 7654,
      "---": 7655,
      "842": 7656,
      "1394": 7657,
      "çī¹éĽ·": 7658,
      "oo": 7659,
      "733": 7660,
      "AB": 7661,
      "Ġsm": 7662,
      "æĸ¯æĭī": 7663,
      "merge": 7664,
      "0298": 7665,
      "505": 7666,
      "åĩı": 7667,
      "))),": 7668,
      "1118": 7669,
      "æĬ¤": 7670,
      "UNDEFINED": 7671,
      "Ġass": 7672,
      "iton": 7673,
      "Ġwould": 7674,
      "Functions": 7675,
      "shar": 7676,
      "`).": 7677,
      "Ġ03": 7678,
      "é«ĺèĢĥ": 7679,
      "èĶļ": 7680,
      "âĹĮà": 7681,
      "cut": 7682,
      "olution": 7683,
      "è²ŀ": 7684,
      "seek": 7685,
      "è¯»": 7686,
      "æķ¸": 7687,
      "ara": 7688,
      "1100": 7689,
      "åĳ¼": 7690,
      "0404": 7691,
      "ĠCheck": 7692,
      "ç§ģ": 7693,
      "930": 7694,
      "ster": 7695,
      "asic": 7696,
      "aylor": 7697,
      "bdd": 7698,
      "ank": 7699,
      "ĠID": 7700,
      "ç¬Ķ": 7701,
      "840": 7702,
      "1314": 7703,
      "lite": 7704,
      "safe": 7705,
      "ĠisEmpty": 7706,
      "ssible": 7707,
      "åĥı": 7708,
      "ĠMethod": 7709,
      "ools": 7710,
      "Ġparams": 7711,
      "huggingface": 7712,
      "1117": 7713,
      "odal": 7714,
      "çĴĩ": 7715,
      "876": 7716,
      "0249": 7717,
      "1154": 7718,
      "Ġer": 7719,
      "1157": 7720,
      "extend": 7721,
      "å±ŀ": 7722,
      "éģĩ": 7723,
      "nan": 7724,
      "éĮ¢": 7725,
      "0031": 7726,
      "0288": 7727,
      "æ¾Ħ": 7728,
      "orn": 7729,
      "ĠTY": 7730,
      "[_": 7731,
      "olink": 7732,
      "ä¹±": 7733,
      "Ġinstall": 7734,
      "æĽĿ": 7735,
      "assignment": 7736,
      "836": 7737,
      "550000000001": 7738,
      "èĭ¦": 7739,
      "eeded": 7740,
      "Ġalg": 7741,
      "ä¹³": 7742,
      "èĸĦ": 7743,
      "èªł": 7744,
      "pha": 7745,
      "Ġ139": 7746,
      "0279": 7747,
      "On": 7748,
      "Ġ257": 7749,
      "åĪĻ": 7750,
      "1156": 7751,
      "Ġcc": 7752,
      "dig": 7753,
      "å§ĭ": 7754,
      "Ġcommand": 7755,
      "0101": 7756,
      "0257": 7757,
      "pedDict": 7758,
      "ZC": 7759,
      "1158": 7760,
      "fail": 7761,
      "cm": 7762,
      "0268": 7763,
      "æĻ®ç½Ĺ": 7764,
      "Ġuses": 7765,
      "833": 7766,
      "åĬ²": 7767,
      "åĳ³": 7768,
      "episode": 7769,
      "æ¿Ģ": 7770,
      "765183436": 7771,
      "0041": 7772,
      "960": 7773,
      "ĠFOR": 7774,
      "515": 7775,
      "Ġchannel": 7776,
      "846": 7777,
      "æį®": 7778,
      "0082": 7779,
      "0256": 7780,
      "1153": 7781,
      "éĻĲ": 7782,
      "metry": 7783,
      "IsNotNull": 7784,
      "(\\": 7785,
      "gs": 7786,
      "çĻ¼": 7787,
      "vector": 7788,
      "question": 7789,
      "åĪ©å¥ĩ": 7790,
      "license": 7791,
      "repo": 7792,
      "0194": 7793,
      "Ġcomparison": 7794,
      "723": 7795,
      "435": 7796,
      "ĠBuildRight": 7797,
      "936": 7798,
      "addle": 7799,
      "tection": 7800,
      "classification": 7801,
      "æ¬²": 7802,
      "unsupported": 7803,
      "space": 7804,
      "651": 7805,
      "çª¦": 7806,
      "Ġ%}": 7807,
      "future": 7808,
      "æĪļ": 7809,
      "Ġ154": 7810,
      "0427": 7811,
      "åĿĹ": 7812,
      "Ġ168": 7813,
      "0186": 7814,
      "æĸ¼": 7815,
      "Ġperform": 7816,
      "Ġnan": 7817,
      "0319": 7818,
      "æŀĲ": 7819,
      "é«Ķ": 7820,
      "åī§": 7821,
      "æ®¿": 7822,
      "Ġlambda": 7823,
      "å·į": 7824,
      "ĠĠĠĠĠĠĠĠĠĠĠĠĠĠĠĠĠĠĠĠĠĠĠĠĠĠĠĠĠĠĠĠĠĠĠĠĠĠĠ": 7825,
      "wrapper": 7826,
      "regex": 7827,
      "Ġenumerate": 7828,
      "Ġfalse": 7829,
      "Ġ302": 7830,
      "æĿŃ": 7831,
      "870": 7832,
      "startswith": 7833,
      "Ġ153": 7834,
      "Ġalready": 7835,
      "'])": 7836,
      "runtime": 7837,
      "cator": 7838,
      "èıģ": 7839,
      "0278": 7840,
      "966": 7841,
      "ait": 7842,
      "dge": 7843,
      "esca": 7844,
      "odes": 7845,
      ")[": 7846,
      "play": 7847,
      "çī§": 7848,
      "çĪĨ": 7849,
      "æ·³": 7850,
      "projection": 7851,
      "umbers": 7852,
      "Ġ_,": 7853,
      "ridge": 7854,
      "Audio": 7855,
      "Be": 7856,
      "éĪ´": 7857,
      "verter": 7858,
      "CLU": 7859,
      "lemetry": 7860,
      "0354": 7861,
      "è¿·": 7862,
      "categor": 7863,
      "Ġtensors": 7864,
      "body": 7865,
      "paid": 7866,
      "Ġ`\"": 7867,
      "ĠSha": 7868,
      "GB": 7869,
      "æģ¶": 7870,
      "patterns": 7871,
      "tol": 7872,
      "ä»ĵ": 7873,
      "timeout": 7874,
      "protoc": 7875,
      "çĮĽ": 7876,
      "ERS": 7877,
      "wn": 7878,
      "stride": 7879,
      "Ġdatetime": 7880,
      "ĠCache": 7881,
      "Var": 7882,
      "è¯į": 7883,
      "æĥĬ": 7884,
      "0339": 7885,
      "æĹĭ": 7886,
      "çªģ": 7887,
      "ç¹ģ": 7888,
      "TESTS": 7889,
      "storage": 7890,
      "0146": 7891,
      "å°½": 7892,
      "Ġstack": 7893,
      "å¢ĥ": 7894,
      "lap": 7895,
      "890": 7896,
      "display": 7897,
      "æķħ": 7898,
      "ç¡ķ": 7899,
      "flatten": 7900,
      "avg": 7901,
      "mk": 7902,
      "dispatch": 7903,
      "large": 7904,
      "æĿı": 7905,
      "benchmark": 7906,
      "0021": 7907,
      "æ¦®": 7908,
      "0226": 7909,
      "Ġpair": 7910,
      "åĭķ": 7911,
      "implicit": 7912,
      "Ġrepresent": 7913,
      "UT": 7914,
      "tuya": 7915,
      "1119": 7916,
      "èĺŃ": 7917,
      "1516": 7918,
      "940": 7919,
      "oug": 7920,
      "Ġtyper": 7921,
      "cul": 7922,
      "èĥĮ": 7923,
      "reportIncompatibleMethod": 7924,
      "reportIncompatibleMethodOverride": 7925,
      "ital": 7926,
      "0287": 7927,
      "apply": 7928,
      "cv": 7929,
      "0352": 7930,
      "entry": 7931,
      "raises": 7932,
      "redu": 7933,
      "times": 7934,
      "qr": 7935,
      "0357": 7936,
      "åºĵå°Ķ": 7937,
      "èĦļ": 7938,
      "Ġ200": 7939,
      "æŃ¤": 7940,
      "0142": 7941,
      "249999999999": 7942,
      "ç»Ī": 7943,
      "éĸĵ": 7944,
      "lections": 7945,
      "ĠTHE": 7946,
      "æħİ": 7947,
      "0412": 7948,
      "2897": 7949,
      "Ġclean": 7950,
      "æ³¢å°Ķ": 7951,
      "parallel": 7952,
      "åŁºäºļ": 7953,
      "èĺĩ": 7954,
      "çĹĩ": 7955,
      "Ġdynamicpruning": 7956,
      "phonenumbers": 7957,
      "0083": 7958,
      "inese": 7959,
      "946": 7960,
      "sider": 7961,
      "0259": 7962,
      "Ġindi": 7963,
      ")`": 7964,
      "allo": 7965,
      "1159": 7966,
      "æł¼ç½Ĺ": 7967,
      "ç¬¬ä¸Ģ": 7968,
      "Ġdirectly": 7969,
      "ĠComp": 7970,
      "clip": 7971,
      "hl": 7972,
      "lev": 7973,
      "1199": 7974,
      "è°¦": 7975,
      "ĠSo": 7976,
      "æ±ĩ": 7977,
      "Ġspecified": 7978,
      "Content": 7979,
      "Ġfilename": 7980,
      "Ġ06": 7981,
      "Ġwra": 7982,
      "series": 7983,
      "functorch": 7984,
      "åı¬": 7985,
      "Ġ$": 7986,
      "0338": 7987,
      "ĠList": 7988,
      "ç¦ıå°Ķ": 7989,
      "ä¼ģ": 7990,
      "å·®": 7991,
      "9417": 7992,
      "1307": 7993,
      "å¢¨": 7994,
      "åħĭéĽ·": 7995,
      "Ġcorrespon": 7996,
      "Ġbreak": 7997,
      "æ·»": 7998,
      "samples": 7999,
      "0344": 8000,
      "ä¸īåįģ": 8001,
      "éªı": 8002,
      "933": 8003,
      "Ha": 8004,
      "Da": 8005,
      "Hu": 8006,
      "0264": 8007,
      "é¦®": 8008,
      "å£®": 8009,
      "Ġhow": 8010,
      "è´Ŀåħĭ": 8011,
      "fefefefefefefefe": 8012,
      "6238216": 8013,
      "remove": 8014,
      "callback": 8015,
      "0504": 8016,
      "æīĺå¤«": 8017,
      "7226238216": 8018,
      "æ¢ĵ": 8019,
      "parameter": 8020,
      "language": 8021,
      "0025": 8022,
      "0269": 8023,
      "0222": 8024,
      "èķŃ": 8025,
      "é¬¼": 8026,
      "ĠĠĠĠĠĠĠĠĠĠĠĠĠĠĠĠĠĠĠĠĠĠĠĠĠĠĠĠĠĠĠĠĠ": 8027,
      "Ġpa": 8028,
      "4317": 8029,
      "Self": 8030,
      "shard": 8031,
      "ano": 8032,
      "')),": 8033,
      "æĴŃ": 8034,
      "ä»½": 8035,
      "Ġmethods": 8036,
      "Ġbig": 8037,
      "ART": 8038,
      "'''": 8039,
      "yunittest": 8040,
      "æİĮ": 8041,
      "425": 8042,
      "åħį": 8043,
      "è»į": 8044,
      "431": 8045,
      "926": 8046,
      "Ġprocessing": 8047,
      "Mu": 8048,
      "Ro": 8049,
      "uble": 8050,
      "TEST": 8051,
      "hr": 8052,
      "hy": 8053,
      "860": 8054,
      "Raises": 8055,
      "0075": 8056,
      "é¹¿": 8057,
      "structure": 8058,
      "å£½": 8059,
      "0123": 8060,
      "Ġraw": 8061,
      "Ġ147": 8062,
      "exist": 8063,
      "ĠĠĠĠĠĠĠĠĠĠĠĠĠĠĠĠĠĠĠĠĠ": 8064,
      "éĺİ": 8065,
      "prims": 8066,
      "quival": 8067,
      "sock": 8068,
      "ĠHost": 8069,
      "Ġexc": 8070,
      "gin": 8071,
      "æľ´": 8072,
      "true": 8073,
      "shared": 8074,
      "Ġaccept": 8075,
      "Ġrope": 8076,
      "CHECKING": 8077,
      "(__": 8078,
      "405": 8079,
      "åĳĤ": 8080,
      "Ġ105": 8081,
      "1224": 8082,
      "0408": 8083,
      "./": 8084,
      "ni": 8085,
      "0358": 8086,
      "1334": 8087,
      "desc": 8088,
      "__)": 8089,
      "Ġbased": 8090,
      "Ġdimension": 8091,
      "mantic": 8092,
      "transform": 8093,
      "çĪ¶": 8094,
      "Taylor": 8095,
      "triton": 8096,
      "è¯·": 8097,
      "}'": 8098,
      "1344": 8099,
      "usic": 8100,
      "å¸ĥåħ°": 8101,
      "415": 8102,
      "Home": 8103,
      "1228": 8104,
      "1867": 8105,
      "Gre": 8106,
      "éı": 8107,
      "Ġexec": 8108,
      "Connection": 8109,
      "1264": 8110,
      "ç»ĩ": 8111,
      "lick": 8112,
      "Ġdirectory": 8113,
      "ining": 8114,
      "åĪ©å°¼": 8115,
      "Ġcompute": 8116,
      "Ġpresent": 8117,
      "æ½ĩ": 8118,
      "å¼ĹéĩĮ": 8119,
      "Than": 8120,
      "å®¿": 8121,
      "Ġcho": 8122,
      "ION": 8123,
      "5738": 8124,
      "ency": 8125,
      "0356": 8126,
      "REQUIRE": 8127,
      "855": 8128,
      "ended": 8129,
      "0274": 8130,
      "ĠBu": 8131,
      "Time": 8132,
      "1254": 8133,
      "Ġfix": 8134,
      "æĻ®éĽ·": 8135,
      "æĸ½æ³°": 8136,
      "ein": 8137,
      "fake": 8138,
      "center": 8139,
      "Ġ267": 8140,
      "åĲ¬": 8141,
      "ĠSh": 8142,
      "Block": 8143,
      "0289": 8144,
      "Ġ00000001": 8145,
      "Ġoptions": 8146,
      "product": 8147,
      ">\",": 8148,
      "Ġwere": 8149,
      "åºĥ": 8150,
      "å§Ĺ": 8151,
      "é²ľ": 8152,
      "decompositions": 8153,
      "Ġ258": 8154,
      "1299": 8155,
      "1414": 8156,
      "éĺ¿æĭī": 8157,
      "âĸĪâĸĪâĸĪâĸĪ": 8158,
      "perm": 8159,
      "ç¦®": 8160,
      "LINE": 8161,
      ",)": 8162,
      "Ġâ": 8163,
      "Ġ187": 8164,
      "term": 8165,
      "registrations": 8166,
      "anh": 8167,
      "ultralytics": 8168,
      "ica": 8169,
      "èĤł": 8170,
      "Ġmetadata": 8171,
      "åħħ": 8172,
      "æĻı": 8173,
      "éľĢ": 8174,
      "logging": 8175,
      "å§£": 8176,
      "Update": 8177,
      "flatbuffers": 8178,
      "ane": 8179,
      "0173": 8180,
      "Ġ264": 8181,
      "çĽ¼": 8182,
      "If": 8183,
      "gis": 8184,
      "1824": 8185,
      "Ġdescription": 8186,
      "Ġ239": 8187,
      "loaded": 8188,
      "ving": 8189,
      "seed": 8190,
      "0478": 8191,
      "åīĤ": 8192,
      "018271": 8193,
      "çĥŁ": 8194,
      "ĠCont": 8195,
      "755": 8196,
      "0181": 8197,
      "å¹¼": 8198,
      "6818018271": 8199,
      "nz": 8200,
      "åı³": 8201,
      "éŁµ": 8202,
      "é¢ĳ": 8203,
      "Ġimple": 8204,
      "0093": 8205,
      "0277": 8206,
      "formatted": 8207,
      "]+)": 8208,
      "ufact": 8209,
      "1332": 8210,
      "è¿½": 8211,
      "å±ı": 8212,
      "factory": 8213,
      "èĵĵ": 8214,
      "é³³": 8215,
      "Ġconverted": 8216,
      "higher": 8217,
      "æĵį": 8218,
      "Process": 8219,
      "è¦º": 8220,
      "Check": 8221,
      "final": 8222,
      "éĽ¶": 8223,
      "éģİ": 8224,
      "ĠTYPE": 8225,
      "checkpointing": 8226,
      "xmath": 8227,
      "æĥŁ": 8228,
      "Ġdropout": 8229,
      "control": 8230,
      "ĠĠĠĠĠĠĠĠĠĠĠĠĠĠĠĠĠĠĠĠĠĠĠĠĠĠĠĠĠĠĠĠĠĠĠĠĠĠĠĠĠ": 8231,
      "cdemo": 8232,
      "0353": 8233,
      "ĠNot": 8234,
      "Ġempty": 8235,
      "tf": 8236,
      "1253": 8237,
      "åĪ©åħĭ": 8238,
      "results": 8239,
      "where": 8240,
      "0554": 8241,
      "ared": 8242,
      "èĥĨ": 8243,
      "é¡¶": 8244,
      "Ref": 8245,
      "æ±Ĺ": 8246,
      "msg": 8247,
      "uting": 8248,
      "920": 8249,
      "unique": 8250,
      "Ġ167": 8251,
      "Ġfd": 8252,
      "Ġthrough": 8253,
      "jo": 8254,
      "1644": 8255,
      "0388": 8256,
      "Ġport": 8257,
      "ĠSHA": 8258,
      "0163": 8259,
      "0708": 8260,
      "Ġwr": 8261,
      "uses": 8262,
      "PAR": 8263,
      "åħĭç½Ĺ": 8264,
      "æĶ¿åºľ": 8265,
      "istic": 8266,
      "Ġrender": 8267,
      "\"][": 8268,
      "å²¸": 8269,
      "Ġremove": 8270,
      "Ġff": 8271,
      "icient": 8272,
      "Ġspecify": 8273,
      "Ġcontains": 8274,
      "64258": 8275,
      "1557": 8276,
      "Ġdecla": 8277,
      "ç¶ĵ": 8278,
      "assertList": 8279,
      "Ġutil": 8280,
      "login": 8281,
      "Shawe": 8282,
      "0514": 8283,
      "ĠTai": 8284,
      "AEP": 8285,
      "IF": 8286,
      "1554": 8287,
      "ĠAnnot": 8288,
      "é¦Ĩ": 8289,
      "Ġ218": 8290,
      "æĿŁ": 8291,
      "æ´Ĺ": 8292,
      "ç©¶": 8293,
      "Ġ}]": 8294,
      "IGH": 8295,
      "è¯Ĩ": 8296,
      "city": 8297,
      "1204": 8298,
      "0508": 8299,
      "æŀª": 8300,
      "ç½ª": 8301,
      "hsh": 8302,
      "0172": 8303,
      "dered": 8304,
      "äºļå°Ķ": 8305,
      "ayload": 8306,
      "1207": 8307,
      "fore": 8308,
      "ModelTester": 8309,
      "1316": 8310,
      "Rel": 8311,
      "æ°£": 8312,
      "Clo": 8313,
      "Ġsample": 8314,
      "çĽŁ": 8315,
      "forms": 8316,
      "assertListEqual": 8317,
      "0599": 8318,
      "Ġcover": 8319,
      "923": 8320,
      "Imp": 8321,
      "æĬ¢": 8322,
      "Ġ240": 8323,
      "1288": 8324,
      "ĠĠĠĠĠĠĠĠĠĠĠĠĠĠĠĠĠĠĠĠĠĠĠĠĠĠĠĠĠĠĠĠĠĠĠĠĠ": 8325,
      "å²Ĺ": 8326,
      "æĻ®éĩĮ": 8327,
      "rotary": 8328,
      "601": 8329,
      "635": 8330,
      "selection": 8331,
      "1356": 8332,
      "åĶ±": 8333,
      "exceptions": 8334,
      "lear": 8335,
      "very": 8336,
      "Optional": 8337,
      "}',": 8338,
      "sequences": 8339,
      "lips": 8340,
      "feed": 8341,
      "æ¸Ĭ": 8342,
      "Ġrtol": 8343,
      "é¢Ĺ": 8344,
      "poch": 8345,
      "è»Ĭ": 8346,
      "FC": 8347,
      "ĠÎ": 8348,
      "oles": 8349,
      "çīŁ": 8350,
      "Ġobj": 8351,
      "month": 8352,
      "_.": 8353,
      "åĽº": 8354,
      "è´Ł": 8355,
      "Ġleft": 8356,
      "æīĺå°Ķ": 8357,
      "å¼ĹéĽ·": 8358,
      "Ġ07": 8359,
      "Ġ149": 8360,
      "arwin": 8361,
      "1217": 8362,
      "1454": 8363,
      "maps": 8364,
      "subtitles": 8365,
      "Do": 8366,
      "otion": 8367,
      "é¢Ŀ": 8368,
      "Former": 8369,
      "Ġ\"/": 8370,
      "lambda": 8371,
      "ç¥Ĳ": 8372,
      "Ġzip": 8373,
      "ç¼ª": 8374,
      "Ġ197": 8375,
      "1364": 8376,
      "ĠOn": 8377,
      "loading": 8378,
      "Ġ178": 8379,
      "ä½Ľ": 8380,
      "FD": 8381,
      "éĶ®": 8382,
      "1368": 8383,
      "Ġstand": 8384,
      "Ġ:]": 8385,
      "moe": 8386,
      "unused": 8387,
      "funcs": 8388,
      "Ġavoid": 8389,
      "]`,": 8390,
      "Ġsocket": 8391,
      "èĮ¶": 8392,
      "æ²Ľ": 8393,
      "ĠĠĠĠĠĠĠĠĠĠĠĠĠĠĠĠĠĠĠĠĠĠĠĠĠĠĠĠĠĠĠĠĠĠĠĠĠĠĠĠĠĠĠ": 8394,
      "å¤ļå¤«": 8395,
      "æ³¨å°Ħæ¶²": 8396,
      "steps": 8397,
      "0000000007": 8398,
      "Ġdeclared": 8399,
      "1298": 8400,
      "æģµ": 8401,
      "ç¿»": 8402,
      "1237": 8403,
      "0359": 8404,
      "ually": 8405,
      "INTEXT": 8406,
      "Ġshow": 8407,
      "æ´ŀ": 8408,
      "Ne": 8409,
      "inition": 8410,
      "PLAINTEXT": 8411,
      "0367": 8412,
      "èĬ®": 8413,
      "Query": 8414,
      "éĭ": 8415,
      "1458": 8416,
      "1306": 8417,
      "1837": 8418,
      "655": 8419,
      "Ġ09": 8420,
      "1324": 8421,
      "æĭīåħĭ": 8422,
      "é¡§": 8423,
      "iddleware": 8424,
      "allow": 8425,
      "heel": 8426,
      "æĿ¯": 8427,
      "çĳ¾": 8428,
      "MENTS": 8429,
      "tiny": 8430,
      "1227": 8431,
      "Ġfatal": 8432,
      "ĠAutoTokenizer": 8433,
      "1258": 8434,
      "1337": 8435,
      "annels": 8436,
      "ĠJia": 8437,
      "ULT": 8438,
      "Ġautomat": 8439,
      "Ġ})": 8440,
      "ceive": 8441,
      "å¾Į": 8442,
      "thw": 8443,
      "ç»ľ": 8444,
      "eager": 8445,
      "Ġ164": 8446,
      "icro": 8447,
      "éĵĥ": 8448,
      "è³Ģ": 8449,
      "310": 8450,
      "Ġ).": 8451,
      "Ji": 8452,
      "Ġ293": 8453,
      "1353": 8454,
      "1367": 8455,
      "ĠJSON": 8456,
      "backward": 8457,
      "1467": 8458,
      "0368": 8459,
      "DataBeforeCtrData": 8460,
      "DataBeforeCtrLen": 8461,
      "DataAfterCtrData": 8462,
      "DataAfterCtrLen": 8463,
      "0399": 8464,
      "èĬĴ": 8465,
      "complete": 8466,
      "å½¼å¾Ĺ": 8467,
      "451": 8468,
      "æ³ķå°Ķ": 8469,
      "ignore": 8470,
      "èķĬ": 8471,
      "0322": 8472,
      "ç»Ļ": 8473,
      "containers": 8474,
      "ĠYi": 8475,
      "56847": 8476,
      "801": 8477,
      "[[": 8478,
      "1444": 8479,
      "1378": 8480,
      "Ġ120": 8481,
      "Stat": 8482,
      "entic": 8483,
      "drop": 8484,
      "erg": 8485,
      "1238": 8486,
      "1317": 8487,
      "0507": 8488,
      "matic": 8489,
      "Ġ\"-": 8490,
      "anu": 8491,
      "1252": 8492,
      "0556": 8493,
      "å¯¦": 8494,
      "country": 8495,
      "åĪĳ": 8496,
      "è®¯": 8497,
      "èį·": 8498,
      "ĠUse": 8499,
      "1232": 8500,
      "0518": 8501,
      "çľī": 8502,
      ">\\": 8503,
      "Down": 8504,
      "dataclass": 8505,
      "Ġscaling": 8506,
      ".+": 8507,
      "701": 8508,
      ">=": 8509,
      "ĠAdd": 8510,
      "ĠBatch": 8511,
      "è·³": 8512,
      "0456": 8513,
      "cheme": 8514,
      "çĬ¯": 8515,
      "é§": 8516,
      "0553": 8517,
      "0552": 8518,
      "Ġexpert": 8519,
      "ĠCould": 8520,
      "'{": 8521,
      "0853": 8522,
      "150000000001": 8523,
      "æ¯ı": 8524,
      "æ¯ĵ": 8525,
      "jection": 8526,
      "349999999999": 8527,
      "åĪº": 8528,
      "åĢį": 8529,
      "ç§ĺ": 8530,
      "ĠLin": 8531,
      "éģĹ": 8532,
      "Ġabove": 8533,
      "èĨľ": 8534,
      "===========================": 8535,
      "babel": 8536,
      "hdemo": 8537,
      "operation": 8538,
      "1456": 8539,
      "ilar": 8540,
      "ĠNO": 8541,
      "ĠTy": 8542,
      "ĠBa": 8543,
      "aarch": 8544,
      "Ġqu": 8545,
      "1398": 8546,
      "åħ©": 8547,
      "Ġduring": 8548,
      "Coordinator": 8549,
      "Ġdocumentation": 8550,
      "642581114": 8551,
      "Hello": 8552,
      "0051": 8553,
      "Ġ166": 8554,
      "é©¬æĭī": 8555,
      "ctr": 8556,
      "Ġpipeline": 8557,
      "ername": 8558,
      "ĠOAEP": 8559,
      "queue": 8560,
      "NO": 8561,
      "uch": 8562,
      "1216": 8563,
      "0329": 8564,
      "manufact": 8565,
      "ĠCA": 8566,
      "ĠInvalid": 8567,
      "Matrix": 8568,
      "7753": 8569,
      "upon": 8570,
      "Ġprocessed": 8571,
      "chedul": 8572,
      "ODEL": 8573,
      "\"}": 8574,
      "platform": 8575,
      "1357": 8576,
      "lain": 8577,
      "Ġwrite": 8578,
      "åº§": 8579,
      "columns": 8580,
      "1304": 8581,
      "1388": 8582,
      "1256": 8583,
      "1278": 8584,
      "lication": 8585,
      "é¥Ń": 8586,
      "Ġannotations": 8587,
      "1244": 8588,
      "åį³": 8589,
      "0516": 8590,
      "ç¨³": 8591,
      "itor": 8592,
      "1268": 8593,
      "è¾ĵ": 8594,
      "èĻļ": 8595,
      "ecimal": 8596,
      "1718": 8597,
      "Ġthread": 8598,
      "sig": 8599,
      "åĪ¤": 8600,
      "1553": 8601,
      "ĠAr": 8602,
      "words": 8603,
      "3339": 8604,
      "Ġloop": 8605,
      "Ġentity": 8606,
      "exit": 8607,
      "LAGS": 8608,
      "1214": 8609,
      "1206": 8610,
      "1327": 8611,
      "ĠNing": 8612,
      "ĠConfig": 8613,
      "Ġpatches": 8614,
      "1352": 8615,
      "ffix": 8616,
      "omi": 8617,
      "éľįå¤«": 8618,
      "era": 8619,
      "Ġhost": 8620,
      "31418": 8621,
      "ances": 8622,
      "ĠLei": 8623,
      "quantize": 8624,
      "ä¸Ļ": 8625,
      "1328": 8626,
      "éłĨ": 8627,
      "äºĴ": 8628,
      "åĵį": 8629,
      "assertRaises": 8630,
      "Ġalways": 8631,
      "é¼ĵ": 8632,
      "ality": 8633,
      "ä¼¸": 8634,
      "ovsky": 8635,
      "Ġ177": 8636,
      "0369": 8637,
      "0347": 8638,
      "1348": 8639,
      "1506": 8640,
      "ssl": 8641,
      "Parameter": 8642,
      "1229": 8643,
      "åĲ¸": 8644,
      "iece": 8645,
      "0424": 8646,
      "Ġlevel": 8647,
      "ĠHosting": 8648,
      "ana": 8649,
      "Ġpattern": 8650,
      "1556": 8651,
      "Ġpartial": 8652,
      "735": 8653,
      "Ġ316": 8654,
      "Ġ248": 8655,
      "0236": 8656,
      "1338": 8657,
      "after": 8658,
      "Ġdist": 8659,
      "Ġ169": 8660,
      "step": 8661,
      "coupon": 8662,
      "Instance": 8663,
      "termin": 8664,
      "åľŃ": 8665,
      "å£ģ": 8666,
      "935": 8667,
      "leep": 8668,
      "1427": 8669,
      "éĻ¤": 8670,
      "ç¼º": 8671,
      "Ġmy": 8672,
      "branch": 8673,
      "0398": 8674,
      "1399": 8675,
      "loy": 8676,
      "Ġpadded": 8677,
      "VisionConfig": 8678,
      "Light": 8679,
      "1358": 8680,
      "èĥŀ": 8681,
      "Ġsegmentation": 8682,
      "çĽĲéħ¸": 8683,
      "600": 8684,
      "ites": 8685,
      "1248": 8686,
      "Ġ`[": 8687,
      "æĿİæĸĩ": 8688,
      "éľľ": 8689,
      "åĢĻ": 8690,
      "Exception": 8691,
      "çĭĤ": 8692,
      "ç¯Ģ": 8693,
      "1377": 8694,
      "defaults": 8695,
      "As": 8696,
      "ĠØ": 8697,
      "Ġbc": 8698,
      "æĸ¯åħĭ": 8699,
      "è¿Ł": 8700,
      "å¹ķ": 8701,
      "Ġorig": 8702,
      "1318": 8703,
      "1428": 8704,
      "1952": 8705,
      "èİ«å°Ķ": 8706,
      "éĪ´æľ¨": 8707,
      "0336": 8708,
      "å²ļ": 8709,
      "901": 8710,
      "Ġctx": 8711,
      "Ġ244": 8712,
      "0517": 8713,
      "æµħ": 8714,
      "èĤĿ": 8715,
      "Ġchannels": 8716,
      "è¤ļ": 8717,
      ")`):": 8718,
      "sampling": 8719,
      "è½½": 8720,
      "gf": 8721,
      "edge": 8722,
      "1698": 8723,
      "Ġ0001": 8724,
      "721": 8725,
      "Ġcolor": 8726,
      "Bar": 8727,
      "Ye": 8728,
      "`]": 8729,
      "1599": 8730,
      "Ġfl": 8731,
      "ç¾İåħĥ": 8732,
      "vx": 8733,
      "1438": 8734,
      "äº«": 8735,
      "ä¹Ļ": 8736,
      "çĳĻ": 8737,
      "network": 8738,
      "ĠTODO": 8739,
      "åªļ": 8740,
      "Ġfactor": 8741,
      "éĩĮå¥¥": 8742,
      "Detr": 8743,
      "multiple": 8744,
      "0509": 8745,
      "ĠBe": 8746,
      "æĦ¿": 8747,
      "START": 8748,
      "commands": 8749,
      "æµĭè¯ķ": 8750,
      "UM": 8751,
      "1110": 8752,
      "Ġcb": 8753,
      "å¾·éĽ·": 8754,
      "æĪĪå°Ķ": 8755,
      "padded": 8756,
      "1308": 8757,
      "5966": 8758,
      "å¾·ç½Ĺ": 8759,
      "ä¾Ľ": 8760,
      "1464": 8761,
      "Ġho": 8762,
      "5429": 8763,
      "ĠAC": 8764,
      "1257": 8765,
      "1437": 8766,
      "reet": 8767,
      "éŁĭ": 8768,
      "Ġreason": 8769,
      "åĢī": 8770,
      "Import": 8771,
      "repr": 8772,
      "location": 8773,
      "Ġtrio": 8774,
      "Ġdetails": 8775,
      "825": 8776,
      "è´¥": 8777,
      "Ġjust": 8778,
      "60484": 8779,
      "142438": 8780,
      "eno": 8781,
      "1406": 8782,
      "00000000007": 8783,
      "ui": 8784,
      "Ġproject": 8785,
      "dependen": 8786,
      "Ġax": 8787,
      "ARROW": 8788,
      "53338": 8789,
      "0519": 8790,
      "çº¸": 8791,
      "Ġ243": 8792,
      "Ġiss": 8793,
      "Ġ126": 8794,
      "ĠVector": 8795,
      "955": 8796,
      "èŁ": 8797,
      "Ġmerge": 8798,
      "0559": 8799,
      "REQUIREMENTS": 8800,
      "lv": 8801,
      "Ali": 8802,
      "App": 8803,
      "Ġpossibly": 8804,
      "ENT": 8805,
      "1453": 8806,
      "ttp": 8807,
      "comment": 8808,
      "ponent": 8809,
      "ffffffffffffffffffffffffffffffffffffffffffffffffffffffffffffffff": 8810,
      "session": 8811,
      "ĠĠĠĠĠĠĠĠĠĠĠĠĠĠĠĠĠĠĠĠĠĠ": 8812,
      "å¾ŀ": 8813,
      "604840786": 8814,
      "éĺµ": 8815,
      "å¯ħ": 8816,
      "ĠEND": 8817,
      "imodal": 8818,
      "éŃ¯": 8819,
      "1424380312": 8820,
      "0085": 8821,
      "alo": 8822,
      "1408": 8823,
      "å¤¸": 8824,
      "Ġ'âĸģ": 8825,
      "Ġadditional": 8826,
      "Mi": 8827,
      "]/{": 8828,
      "0297": 8829,
      "1434": 8830,
      "1354": 8831,
      "Ġrelying": 8832,
      "æŀ«": 8833,
      "æĽ¦": 8834,
      "èįĲ": 8835,
      "èĨı": 8836,
      "Ġ198": 8837,
      "1432": 8838,
      "1608": 8839,
      "1339": 8840,
      "1744": 8841,
      "åĲ¾": 8842,
      "OD": 8843,
      "pag": 8844,
      "1468": 8845,
      "5557": 8846,
      "ĠENS": 8847,
      "Me": 8848,
      "0143": 8849,
      "Ġreference": 8850,
      "HTTP": 8851,
      "IM": 8852,
      "1448": 8853,
      "1488": 8854,
      "0638": 8855,
      "0434": 8856,
      "åī¯": 8857,
      "Ġxgb": 8858,
      "åĪĩåħĭ": 8859,
      "Next": 8860,
      "Rob": 8861,
      "0286": 8862,
      "1277": 8863,
      "1407": 8864,
      "Ġplaylist": 8865,
      "ĠENSURE": 8866,
      "oled": 8867,
      "Ġerrors": 8868,
      "éĢı": 8869,
      "Ġtransform": 8870,
      "ç§ĳå¤«æĸ¯åŁº": 8871,
      "mig": 8872,
      "å¨Ħ": 8873,
      "å¯»": 8874,
      "ĠKi": 8875,
      "è¼Ķ": 8876,
      "Bi": 8877,
      "Ġdb": 8878,
      "99999999992": 8879,
      "Ġprevious": 8880,
      "1937": 8881,
      "gemm": 8882,
      "ARGET": 8883,
      "Client": 8884,
      "0377": 8885,
      "æ²ī": 8886,
      "velo": 8887,
      "åĿ¡": 8888,
      "delta": 8889,
      "631": 8890,
      "0182": 8891,
      "rich": 8892,
      "éĹ®é¢ĺ": 8893,
      "ely": 8894,
      "æļĹ": 8895,
      "ä»Ĭå¤©": 8896,
      "MSNorm": 8897,
      "Socket": 8898,
      "dated": 8899,
      "åĪ©æĸ¯": 8900,
      "Luo": 8901,
      "fill": 8902,
      "1452": 8903,
      "ç´Ķ": 8904,
      "aaaaaaaa": 8905,
      "5684731418": 8906,
      "è§ī": 8907,
      "lates": 8908,
      "sqrt": 8909,
      "1208": 8910,
      "Ġbackbone": 8911,
      "831": 8912,
      "1369": 8913,
      "åĿĩä»·": 8914,
      "segmentation": 8915,
      "1269": 8916,
      "0389": 8917,
      "ros": 8918,
      "unbound": 8919,
      "å¾Ģ": 8920,
      "ĠTra": 8921,
      "æĬķèµĦ": 8922,
      "Ġimplementation": 8923,
      "ql": 8924,
      "ĠAnnotated": 8925,
      "æĽ¸": 8926,
      "å·´æĭī": 8927,
      "1794": 8928,
      "mel": 8929,
      "äºŀ": 8930,
      "ĠAn": 8931,
      "éŃģ": 8932,
      "Ġcharact": 8933,
      "å°Ĭ": 8934,
      "éĴł": 8935,
      "ĠAutoModel": 8936,
      "sport": 8937,
      "Ġ188": 8938,
      "0428": 8939,
      "ĠDo": 8940,
      "trace": 8941,
      "äºĶåįģ": 8942,
      "æ¼«": 8943,
      "ValueError": 8944,
      "725": 8945,
      "OF": 8946,
      "çļĵ": 8947,
      "Ġotherwise": 8948,
      "algo": 8949,
      "5464": 8950,
      "Ġmsg": 8951,
      "ç¶²": 8952,
      "ç¡¬": 8953,
      "350000000001": 8954,
      "å¦ĩ": 8955,
      "02703": 8956,
      "Us": 8957,
      "1247": 8958,
      "å¤ļå°Ķ": 8959,
      "icha": 8960,
      "Char": 8961,
      "Sp": 8962,
      "Ġmessages": 8963,
      "å¹ħ": 8964,
      "æ²ª": 8965,
      "çħľ": 8966,
      "Ġmatching": 8967,
      "835": 8968,
      "925": 8969,
      "615": 8970,
      "Fa": 8971,
      "erson": 8972,
      "ç«ŀ": 8973,
      ")],": 8974,
      "Du": 8975,
      "Get": 8976,
      "Ġ123": 8977,
      "èĬ¦": 8978,
      "Ġuninitialized": 8979,
      "Media": 8980,
      "WE": 8981,
      "0406": 8982,
      "Ġfe": 8983,
      "Ġsend": 8984,
      "Ġlines": 8985,
      "æĹ§": 8986,
      "å·´èµ«": 8987,
      "Ġconf": 8988,
      "hell": 8989,
      "1267": 8990,
      "0448": 8991,
      "une": 8992,
      "éĤ¬": 8993,
      "å¯§": 8994,
      "ROID": 8995,
      "æĪİ": 8996,
      "Subquery": 8997,
      "0464": 8998,
      "1587": 8999,
      "FAIL": 9000,
      "uncation": 9001,
      "50000000006": 9002,
      "partial": 9003,
      "0065": 9004,
      "èĦ±": 9005,
      "ðŁļ¨ðŁļ¨ðŁļ¨ðŁļ¨ðŁļ¨ðŁļ¨ðŁļ¨ðŁļ¨ðŁļ¨ðŁļ¨ðŁļ¨ðŁļ¨ðŁļ¨ðŁļ¨ðŁļ¨ðŁļ¨ðŁļ¨ðŁļ¨ðŁļ¨ðŁļ¨ðŁļ¨ðŁļ¨ðŁļ¨ðŁļ¨ðŁļ¨ðŁļ¨ðŁļ¨ðŁļ¨ðŁļ¨ðŁļ¨ðŁļ¨ðŁļ¨": 9006,
      "Ġ115": 9007,
      "0349": 9008,
      "dynamic": 9009,
      "FIG": 9010,
      "Ġ208": 9011,
      "Ġ480": 9012,
      "0557": 9013,
      "imilar": 9014,
      "æİ¢": 9015,
      "Ġclose": 9016,
      "731": 9017,
      "1219": 9018,
      "0488": 9019,
      "çĪ½": 9020,
      "éĻĦ": 9021,
      "Ġmaybe": 9022,
      "FILE": 9023,
      "Wei": 9024,
      "5807": 9025,
      "æ¢¨": 9026,
      "0233": 9027,
      "1279": 9028,
      "çŁ¢": 9029,
      "Ġequal": 9030,
      "åĿĲ": 9031,
      "èĦī": 9032,
      "ANDROID": 9033,
      "Pa": 9034,
      "WAR": 9035,
      "1359": 9036,
      "çĢ¬": 9037,
      "\"},": 9038,
      "ppc": 9039,
      "çĭĦ": 9040,
      "åªĴ": 9041,
      "OrEqual": 9042,
      "ThanOrEqual": 9043,
      "fr": 9044,
      "ĠLiteral": 9045,
      "ĠAPI": 9046,
      "ene": 9047,
      "0294": 9048,
      "0452": 9049,
      "0437": 9050,
      "åĽ´": 9051,
      "strategy": 9052,
      "sdpa": 9053,
      "ĠSortedSet": 9054,
      "]\",": 9055,
      "classmethod": 9056,
      "ä¼Ĭå°Ķ": 9057,
      "havi": 9058,
      "ä½ĲèĹ¤": 9059,
      "Ġtempfile": 9060,
      "~~~~~~~~~~~~~~~~": 9061,
      "0454": 9062,
      "5699": 9063,
      "Ġasyncio": 9064,
      "Server": 9065,
      "æ¨Ĥ": 9066,
      "çĭĹ": 9067,
      "Ġ162": 9068,
      "ric": 9069,
      "Ġmgf": 9070,
      "Ġ</": 9071,
      "single": 9072,
      "åĪ¸": 9073,
      "821": 9074,
      "Ġ\"\\": 9075,
      "çİĭæĸĩ": 9076,
      "è¯¾": 9077,
      "ç³»ç»Ł": 9078,
      "week": 9079,
      "ĠCan": 9080,
      "supports": 9081,
      "åļ´": 9082,
      "TOR": 9083,
      "1457": 9084,
      "æī§": 9085,
      "ift": 9086,
      "1374": 9087,
      "ader": 9088,
      "Ġtower": 9089,
      "èį¡": 9090,
      "Backend": 9091,
      "1239": 9092,
      "0644": 9093,
      "Ġbf": 9094,
      "SION": 9095,
      "1944": 9096,
      "RMSNorm": 9097,
      "Ġ179": 9098,
      "urs": 9099,
      "ecess": 9100,
      "xml": 9101,
      "Ġdd": 9102,
      "ĠIDE": 9103,
      "package": 9104,
      "Seg": 9105,
      "Ġpossible": 9106,
      "come": 9107,
      "ropy": 9108,
      "board": 9109,
      "Ġ136": 9110,
      "èĶ£": 9111,
      "é½Ĭ": 9112,
      "car": 9113,
      "Ġba": 9114,
      "2558": 9115,
      "istral": 9116,
      "Ġidx": 9117,
      "matrix": 9118,
      "What": 9119,
      "0203": 9120,
      "0498": 9121,
      "pipeline": 9122,
      "éĵ¶è¡Į": 9123,
      "pb": 9124,
      "deprecated": 9125,
      "1418": 9126,
      "FAULT": 9127,
      "sn": 9128,
      "0262": 9129,
      "1459": 9130,
      "æ°§": 9131,
      "Ġrelative": 9132,
      "210": 9133,
      "Ġ146": 9134,
      "promo": 9135,
      "executable": 9136,
      "èıĮ": 9137,
      "ĠQu": 9138,
      "java": 9139,
      "plus": 9140,
      "Ġ212": 9141,
      "1409": 9142,
      "ĠMA": 9143,
      "Option": 9144,
      "1732": 9145,
      "åĪ©å¥¥": 9146,
      "ä¾¿": 9147,
      "éļĭ": 9148,
      "Sm": 9149,
      "itz": 9150,
      "Ġinference": 9151,
      "å¤º": 9152,
      "èģ²": 9153,
      "åł´": 9154,
      "repeat": 9155,
      "1289": 9156,
      "è°ĭ": 9157,
      "ĠWHEN": 9158,
      "aved": 9159,
      "éļı": 9160,
      "è®¡åĪĴ": 9161,
      "1489": 9162,
      "tension": 9163,
      "1309": 9164,
      "æŁĶ": 9165,
      "Run": 9166,
      "1379": 9167,
      "1259": 9168,
      "0458": 9169,
      "Ġ000001": 9170,
      "/(?": 9171,
      "605": 9172,
      "0397": 9173,
      "ç´§": 9174,
      "ç©¿": 9175,
      "ç»ıæµİ": 9176,
      "1507": 9177,
      "èĩ§": 9178,
      "Ġec": 9179,
      "åĢº": 9180,
      "1218": 9181,
      "rary": 9182,
      "è®¿": 9183,
      "oster": 9184,
      "1708": 9185,
      "decimal": 9186,
      "1508": 9187,
      "service": 9188,
      "Possibly": 9189,
      "crop": 9190,
      "ç´į": 9191,
      "shapes": 9192,
      "0444": 9193,
      "ĠWhen": 9194,
      "Node": 9195,
      "messages": 9196,
      "1389": 9197,
      "ĠTHEN": 9198,
      "1558": 9199,
      "CASE": 9200,
      "Ġunbound": 9201,
      "String": 9202,
      "rant": 9203,
      "1209": 9204,
      "3456": 9205,
      "amba": 9206,
      "0242": 9207,
      "until": 9208,
      "uck": 9209,
      "User": 9210,
      "0382": 9211,
      "0432": 9212,
      "Ġfail": 9213,
      "2011": 9214,
      "çħĮ": 9215,
      "=[\"": 9216,
      "0418": 9217,
      "Ġmath": 9218,
      "åľĸ": 9219,
      "ĠDu": 9220,
      "Relation": 9221,
      "ç»ĵæŀľ": 9222,
      "Name": 9223,
      "0652": 9224,
      "0724": 9225,
      "Ġflag": 9226,
      "å®³": 9227,
      "éĢ£": 9228,
      "åĶ¯": 9229,
      "Ġmap": 9230,
      "It": 9231,
      "1397": 9232,
      "Ġsock": 9233,
      "ensure": 9234,
      "æ°¯": 9235,
      "49948": 9236,
      "mand": 9237,
      "0608": 9238,
      "0453": 9239,
      "endif": 9240,
      "5948": 9241,
      "æ»ĳ": 9242,
      "1871": 9243,
      "1977": 9244,
      "ĠGu": 9245,
      "649999999999": 9246,
      "ĠShi": 9247,
      "éĹµ": 9248,
      "å¦»": 9249,
      "ç¼ĺ": 9250,
      "Yu": 9251,
      "1518": 9252,
      "äººæ°ĳ": 9253,
      "Ġchild": 9254,
      "fixt": 9255,
      "851": 9256,
      "remote": 9257,
      "chi": 9258,
      "ç»©": 9259,
      "æµ®": 9260,
      "å°¼æĸ¯": 9261,
      "ç»´äºļ": 9262,
      "å¸Įå°Ķ": 9263,
      "5477": 9264,
      "Ġaa": 9265,
      "png": 9266,
      "ichael": 9267,
      "0091": 9268,
      "Ġrest": 9269,
      "Abstract": 9270,
      "Shi": 9271,
      "Ġ176": 9272,
      "0165": 9273,
      "1509": 9274,
      "è¾º": 9275,
      "ENCE": 9276,
      "loom": 9277,
      "1517": 9278,
      "åį¡éĩĮ": 9279,
      "è¬Ļ": 9280,
      "Ġhf": 9281,
      "3157": 9282,
      "iaomi": 9283,
      "Ġ0315": 9284,
      "1319": 9285,
      "âĹĮÌķ": 9286,
      "533381822": 9287,
      "Ġ2048": 9288,
      "0379": 9289,
      "Ġdc": 9290,
      "æłĹ": 9291,
      "bose": 9292,
      "èĤ¥": 9293,
      "Fast": 9294,
      "Ġeb": 9295,
      "1678": 9296,
      "ç¦ģ": 9297,
      "Mapping": 9298,
      "æĨ²": 9299,
      "diff": 9300,
      "æĹħ": 9301,
      "å¯ĩ": 9302,
      "æĮº": 9303,
      "choices": 9304,
      "season": 9305,
      "1349": 9306,
      "éĢ¢": 9307,
      "æĶĢ": 9308,
      "ĠExp": 9309,
      "collect": 9310,
      "[:-": 9311,
      "ĠVectorized": 9312,
      "0284": 9313,
      "Unbound": 9314,
      "irth": 9315,
      "email": 9316,
      "1347": 9317,
      "Ġprediction": 9318,
      "å¥ĳå¥ĩ": 9319,
      "vo": 9320,
      "Ġssl": 9321,
      "cher": 9322,
      "1479": 9323,
      "1329": 9324,
      "âĹĮÖ®": 9325,
      "eger": 9326,
      "ister": 9327,
      "Ġcallback": 9328,
      "cheduler": 9329,
      "1652": 9330,
      "3788": 9331,
      "Ġbb": 9332,
      "çİĭåŃĲ": 9333,
      "å·¥ä½ľ": 9334,
      "Ġproxy": 9335,
      "paths": 9336,
      "OGRAPH": 9337,
      "ĠIDEOGRAPH": 9338,
      "orary": 9339,
      "0192": 9340,
      "0272": 9341,
      "éŃĶ": 9342,
      "ç¼©": 9343,
      "1477": 9344,
      "getitem": 9345,
      "ĠMask": 9346,
      "ĠDeep": 9347,
      "accelerator": 9348,
      "0664": 9349,
      "Ġae": 9350,
      "integ": 9351,
      "åĨħæĸ¯": 9352,
      "åĤ³": 9353,
      "Ġmasked": 9354,
      "Ġbeing": 9355,
      "allclose": 9356,
      "PATH": 9357,
      "705": 9358,
      "Ho": 9359,
      "0303": 9360,
      "0459": 9361,
      "ä¸ĢçĻ¾": 9362,
      "Multi": 9363,
      "4994802703": 9364,
      "751": 9365,
      "Part": 9366,
      "ppe": 9367,
      "1469": 9368,
      "0438": 9369,
      "åħĭé²ģ": 9370,
      "ç´¹": 9371,
      "ĠVal": 9372,
      "zhh": 9373,
      "Ġef": 9374,
      "ĠAd": 9375,
      "predi": 9376,
      "Ġ1162": 9377,
      "strict": 9378,
      "sql": 9379,
      "Ġaf": 9380,
      "æŁĵ": 9381,
      "lemented": 9382,
      "Ġautomatically": 9383,
      "1928": 9384,
      "Ġins": 9385,
      "åĨĪ": 9386,
      "411": 9387,
      "tasks": 9388,
      "cert": 9389,
      "Ġ352": 9390,
      "0457": 9391,
      "1764": 9392,
      "å®Ł": 9393,
      "çĲĽ": 9394,
      "ĠSequence": 9395,
      "1778": 9396,
      "generated": 9397,
      "partitioning": 9398,
      "][\"": 9399,
      "Ġ189": 9400,
      "1667": 9401,
      "0468": 9402,
      "Ġrename": 9403,
      "sentence": 9404,
      "Ġ238": 9405,
      "0634": 9406,
      "Mask": 9407,
      "rescale": 9408,
      "virt": 9409,
      "è¡į": 9410,
      "Ġ1174": 9411,
      "åºļ": 9412,
      "çģ¯": 9413,
      "vaex": 9414,
      "921": 9415,
      "1664": 9416,
      "Ġsession": 9417,
      "050000000002": 9418,
      "Ġgrad": 9419,
      "Villa": 9420,
      "gy": 9421,
      "0071": 9422,
      "1499": 9423,
      "1447": 9424,
      "ĠPo": 9425,
      "éľī": 9426,
      "\\.)?": 9427,
      "Ġcollections": 9428,
      "Ġspatial": 9429,
      "Ġarch": 9430,
      "1752": 9431,
      "ç§ĳæĭī": 9432,
      "çº³æĸ¯": 9433,
      "åŃ¦çĶŁ": 9434,
      "signal": 9435,
      "softmax": 9436,
      "æ¯Ķäºļ": 9437,
      "GI": 9438,
      "é´": 9439,
      "Ġmedia": 9440,
      "olesale": 9441,
      "Ġ1175": 9442,
      "alcul": 9443,
      "1927": 9444,
      "View": 9445,
      "UnboundVariable": 9446,
      "sort": 9447,
      "1964": 9448,
      "reportPossibly": 9449,
      "trie": 9450,
      "reportPossiblyUnboundVariable": 9451,
      "pot": 9452,
      "áģ": 9453,
      "Ġreplace": 9454,
      "wholesale": 9455,
      "é¤ĺ": 9456,
      "Ġ184": 9457,
      "Ġ1171": 9458,
      "Ġ1170": 9459,
      "0628": 9460,
      "Ġmon": 9461,
      "0183": 9462,
      "Ġ286": 9463,
      "1249": 9464,
      "150000000002": 9465,
      "tp": 9466,
      "0864": 9467,
      "Ġenviron": 9468,
      "ViT": 9469,
      "VL": 9470,
      "nie": 9471,
      "Her": 9472,
      "Ġge": 9473,
      "149999999998": 9474,
      "0447": 9475,
      "Ġ1166": 9476,
      "Ġdownload": 9477,
      "9632": 9478,
      "åĩ½": 9479,
      "è¯¯": 9480,
      "oral": 9481,
      "0407": 9482,
      "0449": 9483,
      "5877": 9484,
      "1948": 9485,
      "]))": 9486,
      "0409": 9487,
      "ä¿Ħ": 9488,
      "Ġ140": 9489,
      "OCR": 9490,
      "Ġfc": 9491,
      "âĹĮÌĢ": 9492,
      "Ġinitializer": 9493,
      "half": 9494,
      "raise": 9495,
      "Ġgu": 9496,
      "åīĩ": 9497,
      "Ġ346": 9498,
      "bbbb": 9499,
      "æ¼¢": 9500,
      "Sa": 9501,
      "é»ŀ": 9502,
      "èįĨ": 9503,
      "Ġuni": 9504,
      "lipsis": 9505,
      "Gemma": 9506,
      "Pl": 9507,
      "00000001": 9508,
      "plug": 9509,
      "è¼Ŀ": 9510,
      "ceived": 9511,
      "ĠPyTorch": 9512,
      "Ġ0300": 9513,
      "åĽ¾å°Ķ": 9514,
      "redirect": 9515,
      "edRelation": 9516,
      "1439": 9517,
      "1953": 9518,
      "0326": 9519,
      "1559": 9520,
      "ä¹Įå°Ķ": 9521,
      "åĹ£": 9522,
      "0155": 9523,
      "Ġhandler": 9524,
      "åħ°å¾·": 9525,
      "è¿ªäºļ": 9526,
      "ĠException": 9527,
      "ending": 9528,
      "1416": 9529,
      "1738": 9530,
      "1978": 9531,
      "æĭīçī¹": 9532,
      "Ġclassification": 9533,
      "æ¿Ł": 9534,
      "ĠInitialize": 9535,
      "0648": 9536,
      "1968": 9537,
      "æĺ±": 9538,
      "æĭ¿": 9539,
      "BaseIE": 9540,
      "Ġ142": 9541,
      "alias": 9542,
      "å¼ĢçĽĺ": 9543,
      "BroadcastMode": 9544,
      "Ġstatus": 9545,
      "Ġet": 9546,
      "åĮ¡": 9547,
      "0656": 9548,
      "ille": 9549,
      "Ġea": 9550,
      "bj": 9551,
      "1754": 9552,
      "ives": 9553,
      "Ġbounding": 9554,
      "virtual": 9555,
      "IA": 9556,
      "Ġtable": 9557,
      "0135": 9558,
      "1429": 9559,
      "1727": 9560,
      "ilder": 9561,
      "Ġ1163": 9562,
      "USE": 9563,
      "ĠSet": 9564,
      "ĠExtractor": 9565,
      "bs": 9566,
      "0323": 9567,
      "0734": 9568,
      "0956": 9569,
      "ç¥º": 9570,
      "okies": 9571,
      "InfoExtractor": 9572,
      "Ġ237": 9573,
      "0624": 9574,
      "èįĴ": 9575,
      "æ¯Ķå°Ķ": 9576,
      "æº¶": 9577,
      "Ġ1169": 9578,
      "riter": 9579,
      "Ġmany": 9580,
      "flex": 9581,
      "inov": 9582,
      "1956": 9583,
      "ä¹ĺ": 9584,
      "contain": 9585,
      "æīĺå¨ĥ": 9586,
      "Ġ1167": 9587,
      "åħ¬å¸ĥ": 9588,
      "allocator": 9589,
      ">\"": 9590,
      "0246": 9591,
      "1478": 9592,
      "çĶ°ä¸Ń": 9593,
      "èĻ«": 9594,
      "é¶": 9595,
      "é»Ħéĩĳ": 9596,
      "å©ķ": 9597,
      "931": 9598,
      "0416": 9599,
      "Ġmost": 9600,
      "Ġcf": 9601,
      "ĠDefaults": 9602,
      "åĩĿ": 9603,
      "ä»Ģä¹Īæĺ¯": 9604,
      "æ³½å°Ķ": 9605,
      "Ġ1168": 9606,
      "ferred": 9607,
      "Ġcorrect": 9608,
      ");": 9609,
      "Ġ\".": 9610,
      "0918": 9611,
      "icon": 9612,
      "1757": 9613,
      "9999999991": 9614,
      "tool": 9615,
      "ĠGlm": 9616,
      "è¿Īå°Ķ": 9617,
      "Message": 9618,
      "uation": 9619,
      "Ġ10000": 9620,
      "1924": 9621,
      "åĲ¦": 9622,
      "5507": 9623,
      "ĠDE": 9624,
      "çŃ±": 9625,
      "èĹ¤åİŁ": 9626,
      "ç£¨": 9627,
      "CoroutineType": 9628,
      ".|": 9629,
      "1954": 9630,
      "è§Ģ": 9631,
      "æİª": 9632,
      "Ġtrainer": 9633,
      "ĠExtractorError": 9634,
      "Wu": 9635,
      "0223": 9636,
      "1724": 9637,
      "1934": 9638,
      "éĺģ": 9639,
      "ç¨İ": 9640,
      "Ġcomment": 9641,
      "0654": 9642,
      "1756": 9643,
      "éĩĮå°¼": 9644,
      "éŁ¶": 9645,
      "xxxx": 9646,
      "HIGH": 9647,
      "nph": 9648,
      "å¤¢": 9649,
      "é¾Ħ": 9650,
      "'.": 9651,
      "511": 9652,
      "1287": 9653,
      "1734": 9654,
      "3968": 9655,
      "ä»ħ": 9656,
      "åĨĢ": 9657,
      "Ġeff": 9658,
      "dddd": 9659,
      "ĠĠĠĠĠĠĠĠĠĠĠĠĠĠĠĠĠĠĠĠĠĠĠĠĠĠĠĠĠĠĠĠĠĠĠĠĠĠĠĠĠĠĠĠĠĠĠ": 9660,
      "Ġhandle": 9661,
      "BO": 9662,
      "Ġ125": 9663,
      "lements": 9664,
      "0627": 9665,
      "Ġvers": 9666,
      "Ġselection": 9667,
      "encoded": 9668,
      "Ġ1172": 9669,
      "ä½Ł": 9670,
      "profil": 9671,
      "Sal": 9672,
      "SHA": 9673,
      "1628": 9674,
      "rist": 9675,
      "å®ħ": 9676,
      "Ġ(:": 9677,
      "åıĻ": 9678,
      "éĹľ": 9679,
      "ragment": 9680,
      "gra": 9681,
      "åĢŁ": 9682,
      "mix": 9683,
      "1688": 9684,
      "1988": 9685,
      "å§Ĳ": 9686,
      "Ġmapping": 9687,
      "çŀ¿": 9688,
      "vsky": 9689,
      "ond": 9690,
      "0607": 9691,
      "1758": 9692,
      "polate": 9693,
      "fully": 9694,
      "SR": 9695,
      "åħĭåĪ©": 9696,
      "Ġbuffer": 9697,
      "0678": 9698,
      "0429": 9699,
      "role": 9700,
      "è¥¿äºļ": 9701,
      "threading": 9702,
      "Ġä»Ģä¹Īæĺ¯": 9703,
      "1634": 9704,
      "1737": 9705,
      "é¢Ĺç²Ĵ": 9706,
      "951": 9707,
      "Memory": 9708,
      "inner": 9709,
      "Ġ1173": 9710,
      "å°¿": 9711,
      "è´£": 9712,
      "sla": 9713,
      "iner": 9714,
      "Ġ199": 9715,
      "1449": 9716,
      "1656": 9717,
      "1788": 9718,
      "Ġwhether": 9719,
      "éľĦ": 9720,
      "Ġurllib": 9721,
      "ĠHashedRelation": 9722,
      "herit": 9723,
      "ĠHashedRelationBroadcastMode": 9724,
      "SH": 9725,
      "kova": 9726,
      "Ġ174": 9727,
      "Ġ373": 9728,
      "Ġtimeout": 9729,
      "lu": 9730,
      "nested": 9731,
      "1653": 9732,
      "unter": 9733,
      "Ġbody": 9734,
      "6953": 9735,
      "èĭ¹": 9736,
      "å±ł": 9737,
      "2048": 9738,
      "1768": 9739,
      "ĠRa": 9740,
      "trainer": 9741,
      "EMA": 9742,
      "1728": 9743,
      "åŁŁ": 9744,
      "å¨´": 9745,
      "ä¹Įæĸ¯": 9746,
      "Ġ209": 9747,
      "1638": 9748,
      "0374": 9749,
      "0384": 9750,
      "ç´ħ": 9751,
      "Ġ1164": 9752,
      "QuerySet": 9753,
      "Pool": 9754,
      "ĠPP": 9755,
      "åĺ´": 9756,
      "Ġsubprocess": 9757,
      "1284": 9758,
      "0658": 9759,
      "ocr": 9760,
      "4666904": 9761,
      "errors": 9762,
      "4666904475": 9763,
      "olean": 9764,
      "1222": 9765,
      "Ġsince": 9766,
      "vicare": 9767,
      "DB": 9768,
      "Ġfb": 9769,
      "0824": 9770,
      "acker": 9771,
      "Ġee": 9772,
      "9769": 9773,
      "åĽ½å®¶": 9774,
      "Dispatch": 9775,
      "700": 9776,
      "free": 9777,
      "lz": 9778,
      "inx": 9779,
      "1907": 9780,
      "1932": 9781,
      "ĠHe": 9782,
      "Ġstrict": 9783,
      "EX": 9784,
      "iling": 9785,
      "Ġprotocol": 9786,
      "çłĶç©¶": 9787,
      "Ni": 9788,
      "}:": 9789,
      "Ġ135": 9790,
      "Ġgot": 9791,
      "lr": 9792,
      "0396": 9793,
      "lier": 9794,
      "pytz": 9795,
      "Ġlink": 9796,
      "å½»": 9797,
      "ç¹¼": 9798,
      "hot": 9799,
      "0629": 9800,
      "éĵľ": 9801,
      "æ»´": 9802,
      "ç®Ń": 9803,
      "å¥ī": 9804,
      "coco": 9805,
      "åĨħåĪ©": 9806,
      "æĻ®å°Ķ": 9807,
      "æĹ¥æľ¬": 9808,
      "Ġcontrol": 9809,
      "rl": 9810,
      "0934": 9811,
      "1967": 9812,
      "Ġagain": 9813,
      "åľĪ": 9814,
      "00905": 9815,
      "Ġmulti": 9816,
      "apter": 9817,
      "1908": 9818,
      "Ġnrfg": 9819,
      "å¾¡": 9820,
      "anged": 9821,
      "ĠWindow": 9822,
      "1498": 9823,
      "1864": 9824,
      "ç»¼": 9825,
      "VERSION": 9826,
      "sliding": 9827,
      "æĹ¦": 9828,
      "ĠCOMBIN": 9829,
      "Ġwhat": 9830,
      "805": 9831,
      "birth": 9832,
      "éĽ·åĪ©": 9833,
      "berg": 9834,
      "relative": 9835,
      "Ġdisable": 9836,
      "Ġhashpartitioning": 9837,
      "ĠCOMBINING": 9838,
      "TAL": 9839,
      "1484": 9840,
      "1654": 9841,
      "0653": 9842,
      "0469": 9843,
      "1938": 9844,
      "Ġsampling": 9845,
      "intro": 9846,
      "{%": 9847,
      "1607": 9848,
      "å¼łæĸĩ": 9849,
      "Ġ{%": 9850,
      "PIC": 9851,
      "æ½ľ": 9852,
      "0499": 9853,
      "1748": 9854,
      "coordinator": 9855,
      "éĺ¿åħĭ": 9856,
      "905": 9857,
      "1624": 9858,
      "0387": 9859,
      "ĠĠĠĠĠĠĠĠĠĠĠĠĠĠĠĠĠĠĠĠ": 9860,
      "overload": 9861,
[...]
